{"<unk>": 0, "<blank>": 1, "<s>": 2, "<s2>": 3, "</s>": 4, ",": 5, ".": 6, "the": 7, "in": 8, "of": 9, "die": 10, "and": 11, "der": 12, "to": 13, "und": 14, "a": 15, "@-@": 16, "is": 17, "that": 18, "(": 19, ")": 20, "zu": 21, ":": 22, "for": 23, "den": 24, "von": 25, "on": 26, "-": 27, "ist": 28, "&quot;": 29, "f\u00fcr": 30, "an": 31, "be": 32, "with": 33, "das": 34, "mit": 35, "are": 36, "des": 37, "auf": 38, "The": 39, "I": 40, "as": 41, "this": 42, "eine": 43, "it": 44, "es": 45, "im": 46, "nicht": 47, "we": 48, "Sie": 49, "werden": 50, "dass": 51, "have": 52, "by": 53, "not": 54, "wir": 55, "ein": 56, "dem": 57, "you": 58, "sich": 59, "will": 60, "Die": 61, "which": 62, "auch": 63, "at": 64, "or": 65, "from": 66, "sind": 67, "was": 68, "has": 69, "wird": 70, "&apos;s": 71, "als": 72, "ich": 73, "um": 74, "all": 75, "European": 76, "In": 77, "can": 78, "oder": 79, "also": 80, "haben": 81, "our": 82, "\u00fcber": 83, "so": 84, "/": 85, "hat": 86, "einer": 87, "sie": 88, "?": 89, "wie": 90, "Union": 91, "zur": 92, "einen": 93, "!": 94, "&apos;": 95, "Ich": 96, "er": 97, "bei": 98, "aus": 99, "Das": 100, "its": 101, "your": 102, "would": 103, "but": 104, "k\u00f6nnen": 105, "We": 106, "am": 107, "more": 108, "one": 109, "their": 110, "EU": 111, ";": 112, "been": 113, "s": 114, "Mr": 115, "einem": 116, "diese": 117, "This": 118, "should": 119, "Wir": 120, "nach": 121, "uns": 122, "It": 123, "zum": 124, "nur": 125, "Commission": 126, "durch": 127, "kann": 128, "do": 129, "dieser": 130, "Kommission": 131, "must": 132, "da\u00df": 133, "un@@": 134, "they": 135, "Der": 136, "time": 137, "us": 138, "there": 139, "vor": 140, "President": 141, "Es": 142, "very": 143, "other": 144, "...": 145, "like": 146, "noch": 147, "new": 148, "Herr": 149, "only": 150, "wenn": 151, "about": 152, "m\u00fcssen": 153, "de": 154, "aber": 155, "er@@": 156, "ver@@": 157, "wurde": 158, "sein": 159, "S@@": 160, "i": 161, "up": 162, "t": 163, "these": 164, "man": 165, "e": 166, "Hotel": 167, "sehr": 168, "s@@": 169, "o": 170, "who": 171, "Europ\u00e4ischen": 172, "k@@": 173, "an@@": 174, "diesem": 175, "if": 176, "no": 177, "re@@": 178, "A@@": 179, "Parliament": 180, "in@@": 181, "Europe": 182, "G@@": 183, "d@@": 184, "t@@": 185, "any": 186, "out": 187, "P@@": 188, "%": 189, "alle": 190, "people": 191, "m\u00f6chte": 192, "B@@": 193, "e@@": 194, "2": 195, "mehr": 196, "T@@": 197, "States": 198, "war": 199, "A": 200, "K@@": 201, "en@@": 202, "into": 203, "C@@": 204, "Member": 205, "report": 206, "1": 207, "D@@": 208, "what": 209, "be@@": 210, "en": 211, "such": 212, "countries": 213, "ge@@": 214, "te": 215, "ten": 216, "well": 217, "my": 218, "eines": 219, "Council": 220, "need": 221, "use": 222, "Pr\u00e4sident": 223, "were": 224, "than": 225, "b@@": 226, "bis": 227, "F@@": 228, "ab@@": 229, "g@@": 230, "when": 231, "M@@": 232, "ihre": 233, "now": 234, "E@@": 235, "some": 236, "dieses": 237, "important": 238, "work": 239, "ARG1": 240, "make": 241, "them": 242, "\"": 243, "vom": 244, "L@@": 245, "most": 246, "first": 247, "because": 248, "between": 249, "a@@": 250, "3": 251, "o@@": 252, "gibt": 253, "sowie": 254, "Bericht": 255, "many": 256, "m@@": 257, "name": 258, "y": 259, "f@@": 260, "H@@": 261, "p@@": 262, "unter": 263, "c@@": 264, "Parlament": 265, "his": 266, "way": 267, "take": 268, "muss": 269, "An@@": 270, "Mitgliedstaaten": 271, "zwischen": 272, "hier": 273, "n@@": 274, "d": 275, "he": 276, "da": 277, "unsere": 278, "me": 279, "N@@": 280, "keine": 281, "support": 282, "made": 283, "system": 284, "m": 285, "just": 286, "W@@": 287, "R@@": 288, "Europa": 289, "those": 290, "information": 291, "O@@": 292, "hotel": 293, "years": 294, "policy": 295, "If": 296, "u@@": 297, "two": 298, "world": 299, "anderen": 300, "over": 301, "de@@": 302, "Ihnen": 303, "z@@": 304, "ch@@": 305, "i@@": 306, "able": 307, "being": 308, "dies": 309, "Wenn": 310, "al@@": 311, "had": 312, "country": 313, "&#91;": 314, "4": 315, "end": 316, "where": 317, "&#93;": 318, "ein@@": 319, "ter": 320, "h@@": 321, "diesen": 322, "year": 323, "dann": 324, "Frau": 325, "immer": 326, "Ver@@": 327, "V@@": 328, "st@@": 329, "gegen": 330, "damit": 331, "5": 332, "l@@": 333, "even": 334, "y@@": 335, "right": 336, "al": 337, "ti@@": 338, "may": 339, "Europ\u00e4ische": 340, "ar@@": 341, "wurden": 342, "I@@": 343, "order": 344, "habe": 345, "same": 346, "see": 347, "l": 348, "Diese": 349, "market": 350, "part": 351, "sondern": 352, "li@@": 353, "sch@@": 354, "unserer": 355, "Im": 356, "here": 357, "political": 358, "ing": 359, "v@@": 360, "area": 361, "Be@@": 362, "economic": 363, "Zeit": 364, ".@@": 365, "jedoch": 366, "possible": 367, "good": 368, "how": 369, "rights": 370, "Ab@@": 371, "ARG0": 372, "k": 373, "10": 374, "ent@@": 375, "place": 376, "development": 377, "As": 378, "own": 379, "aus@@": 380, "Menschen": 381, "Ihre": 382, "heute": 383, "europ\u00e4ischen": 384, "through": 385, "Re@@": 386, "seine": 387, "le": 388, "g": 389, "then": 390, "You": 391, "against": 392, "therefore": 393, "neue": 394, "want": 395, "after": 396, "r@@": 397, "could": 398, "Rat": 399, "within": 400, "mich": 401, "bereits": 402, "le@@": 403, "international": 404, "There": 405, "denen": 406, "sollte": 407, "much": 408, "does": 409, "both": 410, "di@@": 411, "ihrer": 412, "Jahr": 413, "gen": 414, "ge": 415, "under": 416, "public": 417, "neuen": 418, "Frage": 419, "point": 420, "For": 421, "Z@@": 422, "used": 423, "j@@": 424, "w@@": 425, "u": 426, "Entwicklung": 427, "sollten": 428, "ohne": 429, "&amp;": 430, "andere": 431, "Jahren": 432, "last": 433, "fact": 434, "find": 435, "Ein@@": 436, "social": 437, "op1": 438, "J@@": 439, "or@@": 440, "without": 441, "vor@@": 442, "say": 443, "on@@": 444, "high": 445, "n": 446, "still": 447, "at@@": 448, "ers": 449, "free": 450, "-@@": 451, "Sch@@": 452, "finden": 453, "believe": 454, "number": 455, "ation": 456, "services": 457, "know": 458, "machen": 459, "ganz": 460, "geht": 461, "zu@@": 462, "ed": 463, "future": 464, "view": 465, "zwei": 466, "el@@": 467, "allen": 468, "already": 469, "weil": 470, "long": 471, "6": 472, "auf@@": 473, "um@@": 474, "z": 475, "great": 476, "In@@": 477, "U@@": 478, "set": 479, "different": 480, "think": 481, "available": 482, "today": 483, "denn": 484, "-01": 485, "ts": 486, "too": 487, "ung": 488, "That": 489, "service": 490, "before": 491, "Ma\u00dfnahmen": 492, "ri@@": 493, "E": 494, "dazu": 495, "20": 496, "course": 497, "jetzt": 498, "Unternehmen": 499, "c": 500, "viele": 501, "case": 502, "day": 503, "human": 504, "level": 505, "Commissioner": 506, "darauf": 507, "Herrn": 508, "te@@": 509, "cannot": 510, "Welt": 511, "process": 512, "ma@@": 513, "ungs@@": 514, "se@@": 515, "is@@": 516, "la@@": 517, "Mit": 518, "bietet": 519, "30": 520, "ro@@": 521, "per": 522, "sp@@": 523, "products": 524, "Bereich": 525, "7": 526, "liegt": 527, "situation": 528, "ra@@": 529, "debate": 530, "daf\u00fcr": 531, "financial": 532, "se": 533, "2009": 534, "&#124;": 535, "proposal": 536, "get": 537, "her": 538, "national": 539, "data": 540, "Er@@": 541, "bin": 542, "issue": 543, "el": 544, "go": 545, "Aus@@": 546, "einige": 547, "But": 548, "said": 549, "ungen": 550, "person": 551, "Ein": 552, "3@@": 553, "b": 554, "quality": 555, "Al@@": 556, "question": 557, "mir": 558, "seiner": 559, "\u00fcber@@": 560, "wieder": 561, "example": 562, "Informationen": 563, "selbst": 564, "si@@": 565, "p": 566, "meine": 567, "sagen": 568, "ter@@": 569, "geben": 570, "Arbeit": 571, "2@@": 572, "means": 573, "Vor@@": 574, "w\u00fcrde": 575, "schon": 576, "ob": 577, "So": 578, "8": 579, "allem": 580, "offers": 581, "ihren": 582, "Committee": 583, "Lage": 584, "since": 585, "wollen": 586, "mod": 587, "it@@": 588, "However": 589, "clear": 590, "particular": 591, "room": 592, "measures": 593, "Land": 594, "Dies": 595, "ihr": 596, "ur@@": 597, "US": 598, "best": 599, "st": 600, "problem": 601, "citizens": 602, "op@@": 603, "All": 604, "Mar@@": 605, "viel": 606, "including": 607, "L\u00e4nder": 608, "x": 609, "China": 610, "every": 611, "common": 612, "during": 613, "ale": 614, "based": 615, "city": 616, "Jahre": 617, "energy": 618, "stehen": 619, "agreement": 620, "unseren": 621, "business": 622, "help": 623, "Parlaments": 624, "insbesondere": 625, "stellen": 626, "access": 627, "put": 628, "small": 629, "give": 630, "kommen": 631, "each": 632, "taken": 633, "areas": 634, "S": 635, "doch": 636, "De@@": 637, "sa@@": 638, "15": 639, "Eine": 640, "next": 641, "Wie": 642, "lassen": 643, "tes": 644, "w\u00e4hrend": 645, "position": 646, "liche": 647, "ensure": 648, "mi@@": 649, "m\u00f6glich": 650, "nun": 651, "Und": 652, "Unterst\u00fctzung": 653, "etwas": 654, "Vorschlag": 655, "Ma@@": 656, "ate": 657, "few": 658, "three": 659, "la": 660, "Rahmen": 661, "rooms": 662, "form": 663, "Zusammenarbeit": 664, "f": 665, "gut": 666, "provide": 667, "security": 668, "Internet": 669, "far": 670, "come": 671, "Our": 672, "L\u00e4ndern": 673, "problems": 674, "shall": 675, "sehen": 676, "h": 677, "wo": 678, "large": 679, "again": 680, "ch": 681, "ar": 682, "ab": 683, "cooperation": 684, "B\u00fcrger": 685, "necessary": 686, "sten": 687, "50": 688, "further": 689, "why": 690, "F\u00fcr": 691, "On": 692, "back": 693, "Art": 694, "law": 695, "real": 696, "vote": 697, "given": 698, "co@@": 699, "T": 700, "os": 701, "change": 702, "4@@": 703, "ern": 704, "2010": 705, "et@@": 706, "offer": 707, "enden": 708, "C": 709, "men": 710, "seit": 711, "Group": 712, "lo@@": 713, "2008": 714, "waren": 715, "am@@": 716, "ens": 717, "hope": 718, "Un@@": 719, "wichtig": 720, "however": 721, "x@@": 722, "group": 723, "action": 724, "bar": 725, "United": 726, "company": 727, "Namen": 728, "D": 729, "Fall": 730, "tun": 731, "19@@": 732, "erhalten": 733, "steht": 734, "Community": 735, "der@@": 736, "dis@@": 737, "soll": 738, "Kollegen": 739, "Teil": 740, "r": 741, "besteht": 742, "ersten": 743, "ins": 744, "w\u00e4re": 745, "12": 746, "Problem": 747, "Ziel": 748, "systems": 749, "state": 750, "Ro@@": 751, "House": 752, "Fragen": 753, "O": 754, "politischen": 755, "needs": 756, "And": 757, "less": 758, "protection": 759, "Y@@": 760, "life": 761, "einmal": 762, "Recht": 763, "Fraktion": 764, "lichen": 765, "while": 766, "To": 767, "lich": 768, "St@@": 769, "System": 770, "Mrs": 771, "always": 772, "deren": 773, "9": 774, "Euro": 775, "ARG2": 776, "ad@@": 777, "Ar@@": 778, "legal": 779, "letzten": 780, "ol@@": 781, "ja": 782, "With": 783, "better": 784, "What": 785, "down": 786, "line": 787, "ber@@": 788, "current": 789, "whether": 790, "beim": 791, "Bedeutung": 792, "ck@@": 793, "using": 794, "2007": 795, "power": 796, "con@@": 797, "Sicherheit": 798, "mo@@": 799, "ta@@": 800, "trade": 801, "particularly": 802, "stay": 803, "Was": 804, "terms": 805, "X@@": 806, "drei": 807, "pro@@": 808, "me@@": 809, "working": 810, "USA": 811, "They": 812, "making": 813, "bringen": 814, "worden": 815, "At": 816, "mu\u00df": 817, "did": 818, "du": 819, "present": 820, "Staaten": 821, "full": 822, "main": 823, "located": 824, "wissen": 825, "qu@@": 826, "land": 827, "einfach": 828, "open": 829, "basis": 830, "Seite": 831, "2000": 832, "Zu@@": 833, "ger": 834, "issues": 835, "dabei": 836, "ende": 837, "gro\u00dfe": 838, "seinen": 839, "When": 840, "Se@@": 841, "Regierung": 842, "page": 843, "Ge@@": 844, "gro\u00dfen": 845, "Kommissar": 846, "become": 847, "production": 848, "Zimmer": 849, "together": 850, "ne": 851, "management": 852, "chen": 853, "es@@": 854, "ac@@": 855, "result": 856, "certain": 857, "il@@": 858, "unter@@": 859, "weiter": 860, "Thema": 861, "region": 862, "Probleme": 863, "5@@": 864, "et": 865, "another": 866, "Daten": 867, "dar\u00fcber": 868, "00": 869, "welche": 870, "Le@@": 871, "women": 872, "Bei": 873, "sector": 874, "children": 875, "ent": 876, "M\u00f6glichkeit": 877, "Politik": 878, "ne@@": 879, "0@@": 880, "role": 881, "programme": 882, "Richtlinie": 883, "ss@@": 884, "meiner": 885, "ste": 886, "ted": 887, "gen@@": 888, "around": 889, "po@@": 890, "to@@": 891, "na@@": 892, "Aber": 893, "daher": 894, "health": 895, "conditions": 896, "eigenen": 897, "gehen": 898, "These": 899, "davon": 900, "aller": 901, "special": 902, "Verf\u00fcgung": 903, "matter": 904, "ieren": 905, "second": 906, "respect": 907, "k\u00f6nnte": 908, "Weise": 909, "whole": 910, "budget": 911, "industry": 912, "sen": 913, "ische": 914, "Zukunft": 915, "age": 916, "done": 917, "sk@@": 918, "government": 919, "non": 920, "unterst\u00fctzen": 921, "companies": 922, "Auf": 923, "f\u00fchren": 924, "B": 925, "bo@@": 926, "km": 927, "tion": 928, "centre": 929, "stellt": 930, "Auch": 931, "100": 932, "M": 933, "wirklich": 934, "ler": 935, "specific": 936, "sowohl": 937, "account": 938, "ischen": 939, "6@@": 940, "location": 941, "control": 942, "various": 943, "\ufffd": 944, "Nach": 945, "decision": 946, "rapporteur": 947, "Ihr": 948, "site": 949, "kein": 950, "18@@": 951, "da@@": 952, "especially": 953, "he@@": 954, "Con@@": 955, "ated": 956, "Er": 957, "Mo@@": 958, "_": 959, "ul@@": 960, "nat\u00fcrlich": 961, "re": 962, "25": 963, "ten@@": 964, "Stadt": 965, "&apos;t": 966, "ine": 967, "ihnen": 968, "Als": 969, "really": 970, "alles": 971, "th@@": 972, "third": 973, "Beispiel": 974, "EUR": 975, "Rolle": 976, "resolution": 977, "em": 978, "create": 979, "weitere": 980, "old": 981, "ARG1-of": 982, "hand": 983, "look": 984, "gegen\u00fcber": 985, "24": 986, "europ\u00e4ische": 987, "erreichen": 988, "research": 989, "Frauen": 990, "Ende": 991, "besonders": 992, "continue": 993, "million": 994, "crisis": 995, "directive": 996, "ck": 997, "going": 998, "innerhalb": 999, "global": 1000, "zwar": 1001, "op2": 1002, "something": 1003, "regard": 1004, "gentlemen": 1005, "called": 1006, "internationalen": 1007, "Co@@": 1008, "*": 1009, "bieten": 1010, "ment": 1011, "Ihrer": 1012, "gi@@": 1013, "term": 1014, "vi@@": 1015, "ange@@": 1016, "iert": 1017, "Bo@@": 1018, "itself": 1019, "bi@@": 1020, "unser": 1021, "Seiten": 1022, "verschiedenen": 1023, "tra@@": 1024, "Service": 1025, "2006": 1026, "private": 1027, "rules": 1028, "Weg": 1029, "experience": 1030, "8@@": 1031, "11": 1032, "ges": 1033, "La@@": 1034, "Kunden": 1035, "hatte": 1036, "her@@": 1037, "ot@@": 1038, "fully": 1039, "inter@@": 1040, "least": 1041, "ir@@": 1042, "7@@": 1043, "m\u00f6chten": 1044, "wish": 1045, "vielen": 1046, "Meinung": 1047, "local": 1048, "project": 1049, "+": 1050, "ask": 1051, "L": 1052, "water": 1053, "major": 1054, "modern": 1055, "single": 1056, "ie": 1057, "Treaty": 1058, "F": 1059, "general": 1060, "R": 1061, "ner": 1062, "start": 1063, "transport": 1064, "no@@": 1065, "che": 1066, "ds": 1067, "ap@@": 1068, "Madam": 1069, "ger@@": 1070, "institutions": 1071, "au@@": 1072, "subject": 1073, "German": 1074, "Artikel": 1075, "ak@@": 1076, "den@@": 1077, "Germany": 1078, "close": 1079, "pro": 1080, "towards": 1081, "kommt": 1082, "ser@@": 1083, "9@@": 1084, "Situation": 1085, "000": 1086, "Zusammenhang": 1087, "ve": 1088, "Pro@@": 1089, "software": 1090, "befindet": 1091, "environment": 1092, "politische": 1093, "gesagt": 1094, "following": 1095, "im@@": 1096, "once": 1097, "ha@@": 1098, "ag@@": 1099, "\u00dcber@@": 1100, "several": 1101, "ating": 1102, "days": 1103, "ke": 1104, "things": 1105, "entfernt": 1106, "L\u00f6sung": 1107, "aid": 1108, "thank": 1109, "field": 1110, "money": 1111, "often": 1112, "Mittel": 1113, "away": 1114, "&": 1115, "welcome": 1116, "increase": 1117, "growth": 1118, "dort": 1119, "off": 1120, "ia": 1121, "gt": 1122, "positive": 1123, "40": 1124, "list": 1125, "par@@": 1126, "Pr\u00e4sidentin": 1127, "Sp@@": 1128, "ting": 1129, "stand": 1130, "opportunity": 1131, "tive": 1132, "Members": 1133, "No": 1134, "standards": 1135, "value": 1136, "Programm": 1137, "ho@@": 1138, "resources": 1139, "Rates": 1140, "forward": 1141, "\u00e4@@": 1142, "as@@": 1143, "ci@@": 1144, "P": 1145, "ei@@": 1146, "pre@@": 1147, "erste": 1148, "rather": 1149, "Tag": 1150, "agree": 1151, "us@@": 1152, "State": 1153, "food": 1154, "let": 1155, "Ihren": 1156, "nehmen": 1157, "proposals": 1158, "\u00e9@@": 1159, "arbeiten": 1160, "individual": 1161, "n\u00e4mlich": 1162, "approach": 1163, "daran": 1164, "call": 1165, "amendments": 1166, "behalf": 1167, "Deshalb": 1168, "Region": 1169, "beiden": 1170, "product": 1171, "range": 1172, "Hilfe": 1173, "family": 1174, "ce": 1175, "schaffen": 1176, "framework": 1177, "economy": 1178, "do@@": 1179, "halten": 1180, "Software": 1181, "Um": 1182, "weniger": 1183, "so@@": 1184, "lan@@": 1185, "personal": 1186, "price": 1187, "ladies": 1188, "len": 1189, "little": 1190, "N": 1191, "Schutz": 1192, "Alle": 1193, "yet": 1194, "X": 1195, "interest": 1196, "until": 1197, "Europas": 1198, "Auf@@": 1199, "key": 1200, "2005": 1201, "version": 1202, "Unter@@": 1203, "ex@@": 1204, "direkt": 1205, "fast": 1206, "G": 1207, "sh@@": 1208, "Di@@": 1209, "18": 1210, "man@@": 1211, "les": 1212, "ly": 1213, "Hotels": 1214, "excellent": 1215, "adopted": 1216, "him": 1217, "activities": 1218, "text": 1219, "taking": 1220, "costs": 1221, "Aussprache": 1222, "ru@@": 1223, "quite": 1224, "Uhr": 1225, "art": 1226, "Li@@": 1227, "World": 1228, "Hier": 1229, "New": 1230, "side": 1231, "legislation": 1232, "progress": 1233, "technology": 1234, "unserem": 1235, "safety": 1236, "solution": 1237, "allow": 1238, "ma": 1239, "online": 1240, "might": 1241, "opinion": 1242, "period": 1243, "14": 1244, "play": 1245, "indem": 1246, "Millionen": 1247, "zi@@": 1248, "Dieses": 1249, "TV": 1250, "found": 1251, "favour": 1252, "having": 1253, "thing": 1254, "Ebene": 1255, "Grund": 1256, "ung@@": 1257, "per@@": 1258, "members": 1259, "Ex@@": 1260, "ant": 1261, "customers": 1262, "provided": 1263, "rate": 1264, "sen@@": 1265, "reason": 1266, "\u00ae": 1267, "Ch@@": 1268, "ans": 1269, "air": 1270, "policies": 1271, "jeder": 1272, "home": 1273, "points": 1274, "glaube": 1275, "einigen": 1276, "2004": 1277, "short": 1278, "all@@": 1279, "gu@@": 1280, "ko@@": 1281, "ken": 1282, "light": 1283, "Punkt": 1284, "Ent@@": 1285, "dessen": 1286, "co": 1287, "gemacht": 1288, "gilt": 1289, "sogar": 1290, "su@@": 1291, "Produkte": 1292, "among": 1293, "content": 1294, "concerned": 1295, "Leben": 1296, "effective": 1297, "hinaus": 1298, "responsibility": 1299, "lin@@": 1300, "nationalen": 1301, "Bar@@": 1302, "sta@@": 1303, "ur": 1304, "Gemeinschaft": 1305, "mu@@": 1306, "darin": 1307, "ding": 1308, "ms": 1309, "du@@": 1310, "ren@@": 1311, "darf": 1312, "di": 1313, "mar@@": 1314, "ben": 1315, "Rechte": 1316, ".com": 1317, "above": 1318, "difficult": 1319, "bitte": 1320, "mit@@": 1321, "isch": 1322, "for@@": 1323, "K": 1324, "include": 1325, "known": 1326, "September": 1327, "One": 1328, "unterst\u00fctzt": 1329, "2003": 1330, "macht": 1331, "ic@@": 1332, "16": 1333, "Abstimmung": 1334, "society": 1335, "mon@@": 1336, "importance": 1337, "design": 1338, "setzen": 1339, "em@@": 1340, "Haus": 1341, "brauchen": 1342, "w": 1343, "International": 1344, "others": 1345, "\u00f6ffentlichen": 1346, "strategy": 1347, "greater": 1348, "attention": 1349, "min@@": 1350, "He": 1351, "Haupt@@": 1352, "tions": 1353, "betrifft": 1354, "ig@@": 1355, "ca": 1356, "Me@@": 1357, "ber": 1358, "application": 1359, "ebenfalls": 1360, "principle": 1361, "Kinder": 1362, "projects": 1363, "makes": 1364, "bzw.": 1365, "results": 1366, "1@@": 1367, "d\u00fcrfen": 1368, "Car@@": 1369, "&apos;@@": 1370, "Dieser": 1371, "que": 1372, "pa@@": 1373, "groups": 1374, "alen": 1375, "environmental": 1376, "ere": 1377, "simply": 1378, "Um@@": 1379, "Wirtschaft": 1380, "left": 1381, "IT": 1382, "gerade": 1383, "2001": 1384, "sicher": 1385, "times": 1386, "ba@@": 1387, "mp@@": 1388, "elle": 1389, "show": 1390, "ing@@": 1391, "ssen": 1392, "views": 1393, "etwa": 1394, "V": 1395, "0": 1396, "words": 1397, "Form": 1398, "men@@": 1399, "Bezug": 1400, "authorities": 1401, "sollen": 1402, "\u00f6@@": 1403, "Finanz@@": 1404, "ihn": 1405, "sprechen": 1406, "weiterhin": 1407, "Website": 1408, "An": 1409, "questions": 1410, "schen": 1411, "due": 1412, "clearly": 1413, "employment": 1414, "Menschenrechte": 1415, "addition": 1416, "fa@@": 1417, "building": 1418, "provides": 1419, "ihm": 1420, "via": 1421, "town": 1422, "user": 1423, "keinen": 1424, "ert": 1425, "pe@@": 1426, "13": 1427, "ago": 1428, "Pa@@": 1429, "Arbeits@@": 1430, "v": 1431, "nichts": 1432, "En@@": 1433, "Mon@@": 1434, "genau": 1435, "los": 1436, "ster": 1437, "Qualit\u00e4t": 1438, "Strategie": 1439, "del": 1440, "Lo@@": 1441, "ling": 1442, "fen": 1443, "Unsere": 1444, "easy": 1445, "minutes": 1446, "Personen": 1447, "hin@@": 1448, "seinem": 1449, "recent": 1450, "Sa@@": 1451, "pp@@": 1452, "achieve": 1453, "wichtige": 1454, "gute": 1455, "After": 1456, "klar": 1457, "step": 1458, "ihrem": 1459, "deal": 1460, "Po@@": 1461, "proposed": 1462, "serious": 1463, "w\u00fcrden": 1464, "red": 1465, "weit": 1466, "deshalb": 1467, "fe@@": 1468, "solche": 1469, "Ta@@": 1470, "Par@@": 1471, "Ansicht": 1472, "Deutschland": 1473, "Umsetzung": 1474, "website": 1475, "ausge@@": 1476, "pages": 1477, "ze": 1478, "essential": 1479, "interests": 1480, "meeting": 1481, "handelt": 1482, "gs": 1483, "Berlin": 1484, "ut@@": 1485, "Russia": 1486, "2002": 1487, "democracy": 1488, "ve@@": 1489, "deutlich": 1490, "risk": 1491, "eren": 1492, "she": 1493, "hin": 1494, "bedeutet": 1495, "hoffe": 1496, "staff": 1497, "regulation": 1498, "meisten": 1499, "internal": 1500, "regions": 1501, "voted": 1502, "enjoy": 1503, "ings": 1504, "required": 1505, "Zugang": 1506, "sei": 1507, "plan": 1508, "jeden": 1509, "recht": 1510, "complete": 1511, "Ba@@": 1512, "besser": 1513, "kind": 1514, "kon@@": 1515, "aufgrund": 1516, "10@@": 1517, "Gu@@": 1518, "zur\u00fcck@@": 1519, "Da": 1520, "Vertrag": 1521, "om@@": 1522, "house": 1523, "technical": 1524, "freedom": 1525, "Kosten": 1526, "ad": 1527, "longer": 1528, "wide": 1529, "currently": 1530, "sure": 1531, "gemeinsamen": 1532, "training": 1533, "Vorschl\u00e4ge": 1534, "Demokratie": 1535, "implementation": 1536, "Ziele": 1537, "60": 1538, "Gesellschaft": 1539, "bring": 1540, "nutzen": 1541, "wei@@": 1542, "Ra@@": 1543, "peace": 1544, "responsible": 1545, "zen": 1546, "efforts": 1547, "\u00fc@@": 1548, "Verfahren": 1549, "contact": 1550, "address": 1551, "ta": 1552, "gra@@": 1553, "related": 1554, "Restaurant": 1555, "ff@@": 1556, "Verantwortung": 1557, "durch@@": 1558, "past": 1559, "licher": 1560, "n\u00e4chsten": 1561, "sozialen": 1562, "Windows": 1563, "involved": 1564, "werde": 1565, "months": 1566, "cultural": 1567, "date": 1568, "competition": 1569, "sea": 1570, "parties": 1571, "Tra@@": 1572, "natural": 1573, "Ha@@": 1574, "negotiations": 1575, "ka": 1576, "Grundlage": 1577, "geh\u00f6rt": 1578, "and@@": 1579, "themselves": 1580, "beispielsweise": 1581, "Bedingungen": 1582, "ran@@": 1583, "cher": 1584, "zusammen": 1585, "democratic": 1586, "heart": 1587, "needed": 1588, "Debatte": 1589, "Dank": 1590, "low": 1591, "notwendig": 1592, "along": 1593, "Grund@@": 1594, "ator": 1595, "fi@@": 1596, "Herren": 1597, "force": 1598, "f\u00fchrt": 1599, "ideal": 1600, "November": 1601, "ali@@": 1602, "Richtung": 1603, "upon": 1604, "we@@": 1605, "bereich": 1606, "Her@@": 1607, "statt": 1608, "Aus": 1609, "solutions": 1610, "vielleicht": 1611, "wirtschaftlichen": 1612, "ters": 1613, "ste@@": 1614, "Anwendung": 1615, "enough": 1616, "requirements": 1617, "Institutionen": 1618, "Markt": 1619, "17@@": 1620, "cht": 1621, "son": 1622, "directly": 1623, "Ort": 1624, "feel": 1625, "Ko@@": 1626, "station": 1627, "Presidency": 1628, "cases": 1629, "Daher": 1630, "Interesse": 1631, "ene": 1632, "beautiful": 1633, "fundamental": 1634, "nature": 1635, "reform": 1636, "ker": 1637, "etc": 1638, "Kon@@": 1639, "je": 1640, "nen": 1641, "end@@": 1642, "states": 1643, "erst": 1644, "total": 1645, "cost": 1646, "schnell": 1647, "fall": 1648, "besten": 1649, "\u00e1@@": 1650, "findet": 1651, "tion@@": 1652, "four": 1653, "gern": 1654, "Berichterstatter": 1655, "changes": 1656, "gestellt": 1657, "est": 1658, "Hinblick": 1659, "developed": 1660, "developing": 1661, "markets": 1662, "00@@": 1663, "1.@@": 1664, "young": 1665, "go@@": 1666, "ra": 1667, "Reihe": 1668, "allerdings": 1669, "bu@@": 1670, "Inter@@": 1671, "live": 1672, "nach@@": 1673, "extremely": 1674, "Gra@@": 1675, "sc@@": 1676, "standard": 1677, "Abkommen": 1678, "ob@@": 1679, "try": 1680, "ons": 1681, "hi@@": 1682, "80": 1683, "gemeinsame": 1684, "foreign": 1685, "history": 1686, "regional": 1687, "ever": 1688, "liches": 1689, "events": 1690, "Gebiet": 1691, "He@@": 1692, "voll": 1693, "17": 1694, "never": 1695, "Do@@": 1696, "file": 1697, "led": 1698, "\u20ac": 1699, "k\u00f6nnten": 1700, "ach@@": 1701, "ic": 1702, "tr@@": 1703, "Auswirkungen": 1704, "France": 1705, "ft": 1706, "R\u00fcck@@": 1707, "April": 1708, "strong": 1709, "ell": 1710, "comes": 1711, "bekannt": 1712, "Israel": 1713, "Ne@@": 1714, "Damen": 1715, "1999": 1716, "tischen": 1717, "Verhandlungen": 1718, "danken": 1719, "keep": 1720, "network": 1721, "ps": 1722, "lange": 1723, "20@@": 1724, "consider": 1725, "ziehen": 1726, "=": 1727, "bleiben": 1728, "est@@": 1729, "Regionen": 1730, "improve": 1731, "Ad@@": 1732, "Ca@@": 1733, "erreicht": 1734, "funds": 1735, "cht@@": 1736, "lot": 1737, "M\u00f6glichkeiten": 1738, "top": 1739, "event": 1740, "ph@@": 1741, "Su@@": 1742, "Neu@@": 1743, "climate": 1744, "seen": 1745, "Tatsache": 1746, "either": 1747, "ses": 1748, "EN": 1749, "-02": 1750, "workers": 1751, "ni@@": 1752, "true": 1753, "education": 1754, "denke": 1755, "effect": 1756, "procedure": 1757, "wi@@": 1758, "car": 1759, "pay": 1760, "un": 1761, "actually": 1762, "majority": 1763, "15@@": 1764, "thus": 1765, "century": 1766, "tragen": 1767, "facilities": 1768, "rates": 1769, "Version": 1770, "th": 1771, "idea": 1772, "ARG0-of": 1773, "U": 1774, "understand": 1775, "zeigt": 1776, "share": 1777, "mer": 1778, "Ber@@": 1779, "appropriate": 1780, "accept": 1781, "tige": 1782, "sion": 1783, "verwendet": 1784, "Von": 1785, "ben@@": 1786, "team": 1787, "central": 1788, "\u00c4nderungsantr\u00e4ge": 1789, "run": 1790, "Ka@@": 1791, "Ho@@": 1792, "held": 1793, "cken": 1794, "unternehmen": 1795, "tax": 1796, "request": 1797, "Kolleginnen": 1798, "UN": 1799, "hard": 1800, "tet": 1801, "\u00df@@": 1802, "erforderlich": 1803, "Energie@@": 1804, "res": 1805, "though": 1806, "kleinen": 1807, "ard": 1808, "ates": 1809, "Ihrem": 1810, "il": 1811, "Bank": 1812, "material": 1813, "success": 1814, "\u00c4nderungsantrag": 1815, "additional": 1816, "gesch@@": 1817, "ga@@": 1818, "visit": 1819, "Man@@": 1820, "works": 1821, "Dienstleistungen": 1822, "gegeben": 1823, "La": 1824, "according": 1825, "language": 1826, "Programme": 1827, "military": 1828, "over@@": 1829, "near": 1830, "dar": 1831, "Geschichte": 1832, "tung": 1833, "From": 1834, "Doch": 1835, "darum": 1836, "please": 1837, "wenig": 1838, "fer@@": 1839, "leben": 1840, "lead": 1841, "war@@": 1842, "ens@@": 1843, "GmbH": 1844, "Office": 1845, "Abgeordneten": 1846, "act": 1847, "helfen": 1848, "IN@@": 1849, "type": 1850, "space": 1851, "context": 1852, "kt": 1853, "\u00e9": 1854, "created": 1855, "200": 1856, "spielen": 1857, "Entscheidung": 1858, "Mitglieder": 1859, "almost": 1860, "Qu@@": 1861, "meet": 1862, "relations": 1863, "ss": 1864, "ana": 1865, "19": 1866, "initiative": 1867, "soon": 1868, "book": 1869, "lu@@": 1870, "So@@": 1871, "Verordnung": 1872, "einge@@": 1873, "ven@@": 1874, "Please": 1875, "Beziehungen": 1876, "sti@@": 1877, "prices": 1878, "Schritt": 1879, "gesamten": 1880, "Man": 1881, "Durch": 1882, "500": 1883, "big": 1884, "guests": 1885, "dern": 1886, "mal": 1887, "certainly": 1888, "AG": 1889, "media": 1890, "Turkey": 1891, "$": 1892, "everything": 1893, "fragen": 1894, "ors": 1895, "Vereinigten": 1896, "vier": 1897, "enen": 1898, "ies": 1899, "doing": 1900, "receive": 1901, "bereit": 1902, "tern": 1903, "ations": 1904, "cu@@": 1905, "bar@@": 1906, "Government": 1907, "Bu@@": 1908, "Ru@@": 1909, "investment": 1910, "concerns": 1911, "einzelnen": 1912, "pool": 1913, "guarantee": 1914, "programmes": 1915, "living": 1916, "ebenso": 1917, "Bereichen": 1918, "Ergebnis": 1919, "committee": 1920, "communication": 1921, "ded": 1922, "ce@@": 1923, "bare": 1924, "Antwort": 1925, "N\u00e4he": 1926, "existing": 1927, "agreements": 1928, "mentioned": 1929, "Welt@@": 1930, "To@@": 1931, "erm\u00f6glicht": 1932, "table": 1933, "restaurant": 1934, "fest@@": 1935, "Krise": 1936, "h\u00e4tte": 1937, "liegen": 1938, "Ausdruck": 1939, "Liste": 1940, "five": 1941, "American": 1942, "significant": 1943, "links": 1944, "night": 1945, "hatten": 1946, "verschiedene": 1947, "oft": 1948, "Am": 1949, "direct": 1950, "road": 1951, "T\u00fcrkei": 1952, "decisions": 1953, "F\u00f6rderung": 1954, "capital": 1955, "tu@@": 1956, "Bau@@": 1957, "looking": 1958, "card": 1959, "French": 1960, "Ausschusses": 1961, "included": 1962, "Minister": 1963, "aware": 1964, "Mit@@": 1965, "add": 1966, "concerning": 1967, "gleichen": 1968, "2.@@": 1969, "How": 1970, "gestimmt": 1971, "week": 1972, "Haushalts@@": 1973, "king": 1974, "care": 1975, "gung": 1976, "knowledge": 1977, "wei\u00df": 1978, "Bev\u00f6lkerung": 1979, "wichtigen": 1980, "gebracht": 1981, "II": 1982, "turn": 1983, "sub@@": 1984, "tigen": 1985, "H": 1986, "For@@": 1987, "ous": 1988, "auszu@@": 1989, "weltweit": 1990, "wegen": 1991, "ca@@": 1992, "impact": 1993, "ks": 1994, "mm@@": 1995, "reasons": 1996, "www.@@": 1997, "sse": 1998, "&gt;": 1999, "stra@@": 2000, "Kar@@": 2001, "Lu@@": 2002, "gef\u00fchrt": 2003, "program": 2004, "designed": 2005, "internationale": 2006, "objectives": 2007, "writing": 2008, "final": 2009, "ure": 2010, "takes": 2011, "21": 2012, "hei\u00dft": 2013, "situated": 2014, "nothing": 2015, "gemeinsam": 2016, "Iran": 2017, "Aufgabe": 2018, "apply": 2019, "reach": 2020, "Lisbon": 2021, "verf\u00fcgt": 2022, "America": 2023, "connection": 2024, "users": 2025, "jobs": 2026, "har@@": 2027, "Zu": 2028, "weiteren": 2029, "meinen": 2030, "throughout": 2031, "member": 2032, "Ausschuss": 2033, "Au\u00dferdem": 2034, "ier@@": 2035, "Entschlie\u00dfung": 2036, "fin@@": 2037, "Beh\u00f6rden": 2038, "unique": 2039, "ellen": 2040, "legen": 2041, "Gruppe": 2042, "Pi@@": 2043, "gleichzeitig": 2044, "AS@@": 2045, "community": 2046, "outside": 2047, "Du@@": 2048, "ant@@": 2049, "mer@@": 2050, "sin@@": 2051, "mm": 2052, "party": 2053, "across": 2054, "parts": 2055, "Kontrolle": 2056, "ev@@": 2057, "ance": 2058, "amount": 2059, "Cor@@": 2060, "Forschung": 2061, "population": 2062, "Erweiterung": 2063, "board": 2064, "ou@@": 2065, "ments": 2066, "beach": 2067, "tische": 2068, "My": 2069, "Or@@": 2070, "jedem": 2071, "Erfolg": 2072, "Bar": 2073, "agricultural": 2074, "remain": 2075, "Geld": 2076, "values": 2077, "entwickelt": 2078, "face": 2079, "vo@@": 2080, "features": 2081, "DE": 2082, "Fa@@": 2083, "took": 2084, "rei@@": 2085, "wer@@": 2086, "Umwelt@@": 2087, "Park": 2088, "ways": 2089, "test": 2090, "ierung": 2091, "objective": 2092, "Sicherheits@@": 2093, "although": 2094, "famous": 2095, "16@@": 2096, "San": 2097, "zeigen": 2098, "Court": 2099, "fight": 2100, "moment": 2101, "ER": 2102, "verbunden": 2103, "later": 2104, "concern": 2105, "lichkeit": 2106, "wa@@": 2107, "Minuten": 2108, "12@@": 2109, "mail": 2110, "practice": 2111, "22": 2112, "code": 2113, "ierten": 2114, "stage": 2115, "pl@@": 2116, "IS@@": 2117, "Na@@": 2118, "enz@@": 2119, "music": 2120, "Jahres": 2121, "Au@@": 2122, "Affairs": 2123, "erte": 2124, "gel": 2125, "Japan": 2126, "basic": 2127, "early": 2128, "regarding": 2129, "completely": 2130, "Beitrag": 2131, "euro": 2132, "EN@@": 2133, "Markt@@": 2134, "leading": 2135, "unseres": 2136, "established": 2137, "hinsichtlich": 2138, "bleibt": 2139, "No@@": 2140, "erung": 2141, "By": 2142, "South": 2143, "comfortable": 2144, "integration": 2145, "benefit": 2146, "ES@@": 2147, "body": 2148, "hours": 2149, "ster@@": 2150, "web": 2151, "Schaffung": 2152, "sche": 2153, "27": 2154, "customer": 2155, "Mor@@": 2156, "develop": 2157, "wohl": 2158, "Web": 2159, "degree": 2160, "ist@@": 2161, "partners": 2162, "active": 2163, "ina": 2164, "reports": 2165, "check": 2166, "ec@@": 2167, "gel@@": 2168, "l\u00e4sst": 2169, "\u00e4r@@": 2170, "aim": 2171, "Paris": 2172, "jede": 2173, "hal@@": 2174, "model": 2175, "Let": 2176, "package": 2177, "keyword": 2178, "Verbesserung": 2179, "gab": 2180, "demand": 2181, "enthalten": 2182, "ien": 2183, "Per@@": 2184, "indeed": 2185, "performance": 2186, "70": 2187, "Preis": 2188, "Vi@@": 2189, "AR@@": 2190, "nuclear": 2191, "Th@@": 2192, "culture": 2193, "ity": 2194, "Mail": 2195, "breakfast": 2196, "dialogue": 2197, "Projekt": 2198, "alten": 2199, "mis@@": 2200, "Rechts@@": 2201, "traditional": 2202, "Verbraucher": 2203, "move": 2204, "purpose": 2205, "bekommen": 2206, "ts@@": 2207, "ability": 2208, "fair": 2209, "Mal": 2210, "entire": 2211, "governments": 2212, "RE@@": 2213, "konnte": 2214, "AN@@": 2215, "Bi@@": 2216, "ot": 2217, "befinden": 2218, "sch": 2219, "Verbindung": 2220, "achieved": 2221, "W": 2222, "Notwendigkeit": 2223, "ver": 2224, "richtig": 2225, "sense": 2226, "mean": 2227, "seems": 2228, "center": 2229, "ano": 2230, "Gesch\u00e4fts@@": 2231, "{": 2232, "Lissabon": 2233, "Finally": 2234, "Einsatz": 2235, "PC": 2236, "wor@@": 2237, "om": 2238, "verfahren": 2239, "ves": 2240, "Text": 2241, "Blick": 2242, "includes": 2243, "read": 2244, "allows": 2245, "baren": 2246, "derzeit": 2247, "East": 2248, "L\u00f6sungen": 2249, "job": 2250, "Since": 2251, "einzu@@": 2252, "je@@": 2253, "fest": 2254, "Zum": 2255, "Information": 2256, "Initiative": 2257, "ierte": 2258, "halte": 2259, "function": 2260, "prevent": 2261, "amendment": 2262, "soziale": 2263, "quickly": 2264, "erm\u00f6glichen": 2265, "wichtigsten": 2266, "Russland": 2267, "consumers": 2268, "f\u00f6rdern": 2269, "Platz": 2270, "Wirtschafts@@": 2271, "pi@@": 2272, "lack": 2273, "Nutzung": 2274, "jedes": 2275, "Gelegenheit": 2276, "built": 2277, "Partner": 2278, "chten": 2279, "principles": 2280, "send": 2281, "av@@": 2282, "Interessen": 2283, "goods": 2284, "Zentrum": 2285, "90": 2286, "everyone": 2287, "London": 2288, "Article": 2289, "focus": 2290, "mind": 2291, "ry": 2292, "received": 2293, "half": 2294, "applications": 2295, "tiert": 2296, "14@@": 2297, "lose": 2298, "game": 2299, "treatment": 2300, "friendly": 2301, "ton": 2302, "potential": 2303, "wobei": 2304, "23": 2305, "Ergebnisse": 2306, "border": 2307, "enth\u00e4lt": 2308, "professional": 2309, "Si@@": 2310, "ging": 2311, "contains": 2312, "wirtschaftliche": 2313, "Seit": 2314, "agreed": 2315, "commitment": 2316, "verbessern": 2317, "genommen": 2318, "ka@@": 2319, "ty": 2320, "Dis@@": 2321, "Damit": 2322, "original": 2323, "ah@@": 2324, "Regierungen": 2325, "files": 2326, "Wort": 2327, "increased": 2328, "Online": 2329, "ed@@": 2330, "bed": 2331, "tic": 2332, "13@@": 2333, "choice": 2334, "self": 2335, "hei@@": 2336, "Vor": 2337, "kleine": 2338, "angenommen": 2339, "anzu@@": 2340, "matters": 2341, "..": 2342, "answer": 2343, "direction": 2344, "Steuer@@": 2345, "perhaps": 2346, "va": 2347, "huge": 2348, "zusammen@@": 2349, "Design": 2350, "press": 2351, "lei@@": 2352, "levels": 2353, "meinem": 2354, "actions": 2355, "neu": 2356, "bel@@": 2357, "recently": 2358, "successful": 2359, "internet": 2360, "v\u00f6llig": 2361, "#": 2362, "carried": 2363, "presented": 2364, "CD": 2365, "ell@@": 2366, "Landes": 2367, "ums": 2368, "joint": 2369, "stop": 2370, "equipment": 2371, "}": 2372, "Therefore": 2373, "promote": 2374, "below": 2375, "June": 2376, "rest": 2377, "Central": 2378, "simple": 2379, "mann": 2380, "eller": 2381, "ER@@": 2382, "Unser": 2383, "image": 2384, "Barcelona": 2385, "Te@@": 2386, "WTO": 2387, "whose": 2388, "follow": 2389, "hr@@": 2390, "ys": 2391, "the@@": 2392, "Ri@@": 2393, "beginning": 2394, "tieren": 2395, "reviews": 2396, "Debian": 2397, "zeit": 2398, "\u00df": 2399, "sustainable": 2400, "del@@": 2401, "park": 2402, "schriftlich": 2403, "Gesundheit": 2404, "\u00e4n@@": 2405, "bus": 2406, "Tri@@": 2407, "May": 2408, "gleich": 2409, "tats\u00e4chlich": 2410, "return": 2411, "gar": 2412, "Verwendung": 2413, "entwickeln": 2414, "ches": 2415, "Themen": 2416, "star": 2417, "ze@@": 2418, "mehrere": 2419, "gro\u00dfer": 2420, "ganzen": 2421, "walk": 2422, "Sozial@@": 2423, "Mi@@": 2424, "\u00c4nderungen": 2425, "equipped": 2426, "car@@": 2427, "aspects": 2428, "perfect": 2429, "enable": 2430, "Einf\u00fchrung": 2431, "Zeitpunkt": 2432, "Here": 2433, "bestehen": 2434, "rich": 2435, "sorgen": 2436, "fahren": 2437, "asked": 2438, "tiger": 2439, "tig": 2440, "Umwelt": 2441, "gerne": 2442, "increasing": 2443, "anderer": 2444, "net": 2445, "creation": 2446, "response": 2447, "Linux": 2448, "trans@@": 2449, "enlargement": 2450, "possibility": 2451, "ender": 2452, "higher": 2453, "tor": 2454, "Booking.com": 2455, "Bek\u00e4mpfung": 2456, "double": 2457, "Dar\u00fcber": 2458, "style": 2459, "ganze": 2460, "note": 2461, "status": 2462, "relevant": 2463, "eigene": 2464, "highly": 2465, "August": 2466, "funding": 2467, "Woche": 2468, "tri@@": 2469, "gew\u00e4hrleisten": 2470, "tz@@": 2471, "added": 2472, "Erachtens": 2473, "\u00e4u\u00dferst": 2474, "besch@@": 2475, "priority": 2476, "ischer": 2477, "effects": 2478, "\u00e4ndern": 2479, "berg": 2480, "General": 2481, "abge@@": 2482, "geb@@": 2483, "Auto@@": 2484, "opportunities": 2485, "sagte": 2486, "balance": 2487, "Bitte": 2488, "capacity": 2489, "ik@@": 2490, "sor@@": 2491, "reduce": 2492, "ie@@": 2493, "civil": 2494, "previous": 2495, "Kosovo": 2496, "oil": 2497, "fordern": 2498, "pressure": 2499, "Kommissarin": 2500, "Management": 2501, "kte": 2502, "Integration": 2503, "speak": 2504, "Organisation": 2505, "verwenden": 2506, "Frankreich": 2507, "guten": 2508, "holiday": 2509, "ise": 2510, "verstehen": 2511, "zun\u00e4chst": 2512, "coming": 2513, "mein": 2514, "Ac@@": 2515, "Server": 2516, "exchange": 2517, "meines": 2518, "\u00e0": 2519, "external": 2520, "Prozess": 2521, "gas": 2522, "Stunden": 2523, "Fortschritte": 2524, "Ukraine": 2525, "setting": 2526, "don": 2527, "forms": 2528, "Kultur": 2529, "size": 2530, "National": 2531, "f\u00fcnf": 2532, "thanks": 2533, "enter": 2534, "verf\u00fcgen": 2535, "ski": 2536, "Kampf": 2537, "computer": 2538, "reached": 2539, "Y": 2540, "geh\u00f6ren": 2541, "prepared": 2542, "erten": 2543, "tionen": 2544, "front": 2545, "complex": 2546, "Spain": 2547, "bestimmte": 2548, "Now": 2549, "ally": 2550, "300": 2551, "Euro@@": 2552, "shows": 2553, "shown": 2554, "protect": 2555, "billion": 2556, "gten": 2557, "ary": 2558, "ann@@": 2559, "gem\u00e4\u00df": 2560, "schaft": 2561, "ative": 2562, "behind": 2563, "office": 2564, "zur\u00fcck": 2565, "z.B.": 2566, "bisher": 2567, "zeit@@": 2568, "bei@@": 2569, "Person": 2570, "rund": 2571, "innovative": 2572, "polarity": 2573, "First": 2574, "Da@@": 2575, "Nach@@": 2576, "series": 2577, "lediglich": 2578, "Africa": 2579, "considered": 2580, "consumer": 2581, "movement": 2582, "Wasser@@": 2583, "El@@": 2584, "ES": 2585, "sites": 2586, "heit": 2587, "Q@@": 2588, "English": 2589, "nimmt": 2590, "source": 2591, "obwohl": 2592, "neben": 2593, "einschlie\u00dflich": 2594, "versuchen": 2595, "ro": 2596, "treffen": 2597, "supported": 2598, "Industrie": 2599, "Convention": 2600, "ass@@": 2601, "up@@": 2602, "len@@": 2603, "manner": 2604, "supply": 2605, "choose": 2606, "setzt": 2607, "Mitglied": 2608, "Amsterdam": 2609, "ales": 2610, "35": 2611, "Nor@@": 2612, "assistance": 2613, "Bestimmungen": 2614, "ma\u00dfnahmen": 2615, "ssi@@": 2616, "categories": 2617, "former": 2618, "ke@@": 2619, "providing": 2620, "Mehrheit": 2621, "cause": 2622, "industrial": 2623, "chte": 2624, "Land@@": 2625, "leg@@": 2626, "stability": 2627, "Dinge": 2628, "link": 2629, "verb@@": 2630, "igen": 2631, "closed": 2632, "Erkl\u00e4rung": 2633, "weiter@@": 2634, "decided": 2635, "ler@@": 2636, "regards": 2637, "au": 2638, "1998": 2639, "rule": 2640, "ich@@": 2641, "res@@": 2642, "search": 2643, "Wert": 2644, "tre@@": 2645, "regulations": 2646, "af@@": 2647, "mal@@": 2648, "came": 2649, "AL@@": 2650, "Systems": 2651, "suchen": 2652, "latest": 2653, "nie": 2654, "Wachstum": 2655, "Juni": 2656, "Hoch@@": 2657, "hotels": 2658, "IC@@": 2659, "Pe@@": 2660, "Of": 2661, "relation": 2662, "Vorschriften": 2663, "Fahr@@": 2664, "scheint": 2665, "zer@@": 2666, "Party": 2667, "gesamte": 2668, "ST@@": 2669, "ice": 2670, "bestimmten": 2671, "genden": 2672, "eu@@": 2673, "Dialog": 2674, "Mal@@": 2675, "remains": 2676, "dr@@": 2677, "Zahl": 2678, "submitted": 2679, "Aktivit\u00e4ten": 2680, "Entscheidungen": 2681, "zweite": 2682, "guest": 2683, "partner": 2684, "Anfang": 2685, "commercial": 2686, "san@@": 2687, "creating": 2688, "discussion": 2689, "ort": 2690, "Some": 2691, "word": 2692, "falls": 2693, "British": 2694, "Italy": 2695, "ore": 2696, "December": 2697, "Luft@@": 2698, "ment@@": 2699, "kosten": 2700, "video": 2701, "We@@": 2702, "Gewalt": 2703, "dar@@": 2704, "pleased": 2705, "Anzahl": 2706, "compromise": 2707, "sa": 2708, "weise": 2709, "Erfahrung": 2710, "dung": 2711, "solchen": 2712, "independent": 2713, "ones": 2714, "operation": 2715, "Standpunkt": 2716, "Tage": 2717, "lines": 2718, "safe": 2719, "3.@@": 2720, "Herzen": 2721, "gr@@": 2722, "server": 2723, "Besch\u00e4ftigung": 2724, "materials": 2725, "hohen": 2726, "Team": 2727, "els": 2728, "erster": 2729, "gives": 2730, "ground": 2731, "aufzu@@": 2732, "somit": 2733, "limited": 2734, "vergangenen": 2735, "Zeit@@": 2736, "Punkte": 2737, "Bel@@": 2738, "violence": 2739, "Western": 2740, "pass": 2741, "Daten@@": 2742, "sel@@": 2743, "Familie": 2744, "weder": 2745, "fo@@": 2746, "abzu@@": 2747, "ino": 2748, "Handel": 2749, "brought": 2750, "Mai": 2751, "W\u00e4hrend": 2752, "contribution": 2753, "North": 2754, "aufge@@": 2755, "statement": 2756, "AT@@": 2757, "fishing": 2758, "Angebot": 2759, "procedures": 2760, "Dabei": 2761, "bringt": 2762, "travel": 2763, "rec@@": 2764, "item": 2765, "na": 2766, "bit": 2767, "ns": 2768, "Sprache": 2769, "Aufmerksamkeit": 2770, "medium": 2771, "provisions": 2772, "steps": 2773, "easily": 2774, "bez\u00fcglich": 2775, "CO@@": 2776, "Ste@@": 2777, "aufgenommen": 2778, "lage": 2779, "ori@@": 2780, "labour": 2781, "stark": 2782, "Freiheit": 2783, "gan@@": 2784, "ser": 2785, "che@@": 2786, "City": 2787, "Republic": 2788, "Services": 2789, "month": 2790, "Wahl": 2791, "mobile": 2792, "Raum": 2793, "fallen": 2794, "Reform": 2795, "document": 2796, "Landwirtschaft": 2797, "ktion": 2798, "places": 2799, "charge": 2800, "option": 2801, "Produktion": 2802, "property": 2803, "Berichts": 2804, "organisation": 2805, "Jo@@": 2806, "instead": 2807, "Lebens@@": 2808, "sp\u00e4ter": 2809, "draft": 2810, "europ\u00e4ischer": 2811, "criteria": 2812, "message": 2813, "Investitionen": 2814, "Gefahr": 2815, "Energie": 2816, "activity": 2817, "credit": 2818, "Site": 2819, "stu@@": 2820, "innen": 2821, "mor@@": 2822, "scher": 2823, "Sta@@": 2824, "Mitarbeiter": 2825, "geschlossen": 2826, "floor": 2827, "leisten": 2828, "ade": 2829, "au\u00dferdem": 2830, "kt@@": 2831, "mat@@": 2832, "Mediterranean": 2833, "similar": 2834, "\u00ed@@": 2835, "tell": 2836, "Position": 2837, "Bild": 2838, "Bereiche": 2839, "stre@@": 2840, "Funktion": 2841, "Hand": 2842, "sound": 2843, "leave": 2844, "sto@@": 2845, "voll@@": 2846, "RA@@": 2847, "efficient": 2848, "dadurch": 2849, "Business": 2850, "Transparenz": 2851, "mittel": 2852, "tete": 2853, "Dezember": 2854, "details": 2855, "einzige": 2856, "giving": 2857, "structure": 2858, "Nationen": 2859, "Sal@@": 2860, "transparency": 2861, "conference": 2862, "Portugal": 2863, "instruments": 2864, "terrorism": 2865, "f\u00fchrung": 2866, "weisen": 2867, "ourselves": 2868, "Development": 2869, "Diskussion": 2870, "ble": 2871, "Grenzen": 2872, "angesichts": 2873, "Rights": 2874, "insgesamt": 2875, "agenda": 2876, "Pr\u00e4sidentschaft": 2877, "teile": 2878, "Gar@@": 2879, "Gi@@": 2880, "enti@@": 2881, "id": 2882, "Stelle": 2883, "det": 2884, "schlie\u00dflich": 2885, "anti": 2886, "Ben@@": 2887, "January": 2888, "Hand@@": 2889, "Schlusselwortern": 2890, "met@@": 2891, "Wettbewerb": 2892, "sub": 2893, "fe": 2894, "dy": 2895, "zweiten": 2896, "solidarity": 2897, "ls": 2898, "ron@@": 2899, "bad": 2900, "elections": 2901, "und@@": 2902, "zahlreiche": 2903, "ari@@": 2904, "lang": 2905, "sieht": 2906, "26": 2907, "m\u00f6glichkeiten": 2908, "six": 2909, "Regeln": 2910, "Wi@@": 2911, "effort": 2912, "Auffassung": 2913, "IT@@": 2914, "politik": 2915, "produced": 2916, "begr\u00fc\u00dfe": 2917, "allowed": 2918, "Pr\u00e4sidenten": 2919, "ate@@": 2920, "Macht": 2921, "leider": 2922, "accommodation": 2923, "cross": 2924, "Auswahl": 2925, "Folgen": 2926, "express": 2927, "mb@@": 2928, "task": 2929, "March": 2930, "speed": 2931, "gar@@": 2932, "hohe": 2933, "poverty": 2934, "Pre@@": 2935, "fra@@": 2936, "getan": 2937, "Bildung": 2938, "Pal@@": 2939, "bil@@": 2940, "lung": 2941, "teten": 2942, "Tagesordnung": 2943, "benefits": 2944, "bet@@": 2945, "Meine": 2946, "Anforderungen": 2947, "gr\u00f6\u00dften": 2948, "stri@@": 2949, "reading": 2950, "28": 2951, "Room": 2952, "nor": 2953, "Projekte": 2954, "popular": 2955, "damage": 2956, "Fe@@": 2957, "summer": 2958, "Today": 2959, "extra": 2960, "Umgebung": 2961, "eh@@": 2962, "concept": 2963, "wichtiger": 2964, "Preise": 2965, "Ku@@": 2966, "iger": 2967, "Wasser": 2968, "tel": 2969, "consequences": 2970, "Frei@@": 2971, "produce": 2972, "legislative": 2973, "sches": 2974, "Fach@@": 2975, "Spiel": 2976, "com@@": 2977, "October": 2978, "Ti@@": 2979, "Ser@@": 2980, "Museum": 2981, "neuer": 2982, "str@@": 2983, "atmosphere": 2984, "pri@@": 2985, "Anfrage": 2986, "Kur@@": 2987, "hand@@": 2988, "written": 2989, "Sh@@": 2990, "frei": 2991, "conflict": 2992, "saying": 2993, "reality": 2994, "Com@@": 2995, "gener@@": 2996, "challenges": 2997, "Gr\u00fcnden": 2998, "Har@@": 2999, "gelten": 3000, "Bem\u00fchungen": 3001, "UN@@": 3002, "eigentlich": 3003, "B\u00fcrgern": 3004, "leicht": 3005, "Natur": 3006, "construction": 3007, "morgen": 3008, "finally": 3009, "ical": 3010, "\u00f6r@@": 3011, "forces": 3012, "raum": 3013, "modified": 3014, "paid": 3015, "Wei@@": 3016, "integrated": 3017, "largest": 3018, "OS": 3019, "study": 3020, "equal": 3021, "base": 3022, "wer": 3023, "beitragen": 3024, "Kraft": 3025, "quant": 3026, "Meer": 3027, "colleagues": 3028, "distribution": 3029, "ente": 3030, "1997": 3031, "ft@@": 3032, "ite": 3033, "M\u00e4rz": 3034, "documents": 3035, "tem": 3036, "AC@@": 3037, "Also": 3038, "apartment": 3039, "Nur": 3040, "ents": 3041, "B\u00fcrgerinnen": 3042, "stimmen": 3043, "film": 3044, "zehn": 3045, "ism": 3046, "review": 3047, "gesetzt": 3048, "\u00c4nderung": 3049, "genannten": 3050, "bank": 3051, "\u00d6ffentlichkeit": 3052, "illegal": 3053, "tomorrow": 3054, "require": 3055, "bevor": 3056, "Fu@@": 3057, "Lin@@": 3058, "diejenigen": 3059, "Furthermore": 3060, "alternative": 3061, "congratulate": 3062, "32": 3063, "York": 3064, "ak": 3065, "Sinne": 3066, "interesting": 3067, "establish": 3068, "Sache": 3069, "class": 3070, "growing": 3071, "Directive": 3072, "eingesetzt": 3073, "started": 3074, "Ansatz": 3075, "port": 3076, "West": 3077, "br@@": 3078, "box": 3079, "Benutzer": 3080, "gte": 3081, "kannst": 3082, "talk": 3083, "Handels@@": 3084, "fer": 3085, "allein": 3086, "draw": 3087, "lau@@": 3088, "durchgef\u00fchrt": 3089, "payment": 3090, "bs": 3091, "late": 3092, "Spiel@@": 3093, "\u00f6ffentliche": 3094, "Amendment": 3095, "applied": 3096, "island": 3097, "versch@@": 3098, "Centre": 3099, "official": 3100, "organisations": 3101, "eln": 3102, "Einzel@@": 3103, "konnten": 3104, "bau@@": 3105, "ben\u00f6tigen": 3106, "tool": 3107, "Linie": 3108, "elements": 3109, "goes": 3110, "h\u00e4lt": 3111, "Italian": 3112, "July": 3113, "ness": 3114, "bel": 3115, "erwarten": 3116, "pu@@": 3117, "efficiency": 3118, "Fehler": 3119, "chen@@": 3120, "variety": 3121, "crucial": 3122, "tik@@": 3123, "met": 3124, "implemented": 3125, "4.@@": 3126, "Rechtsvorschriften": 3127, "section": 3128, "avoid": 3129, "ff": 3130, "star@@": 3131, "ern@@": 3132, "ber\u00fccksichtigt": 3133, "ige": 3134, "enn@@": 3135, "Bal@@": 3136, "analysis": 3137, "monitoring": 3138, "ihres": 3139, "hoch@@": 3140, "relating": 3141, "types": 3142, "click": 3143, "ation@@": 3144, "h\u00e4tten": 3145, "instrument": 3146, "IS": 3147, "lives": 3148, "G\u00e4ste": 3149, "45": 3150, "erneut": 3151, "employees": 3152, "Produkt@@": 3153, "F\u00e4llen": 3154, "Spanish": 3155, "0.@@": 3156, "e-01": 3157, "tions@@": 3158, "Monaten": 3159, "comp@@": 3160, "aktuellen": 3161, "immediately": 3162, "verhindern": 3163, "beyond": 3164, "ang": 3165, "accession": 3166, "anischen": 3167, "mel@@": 3168, "gende": 3169, "out@@": 3170, "des@@": 3171, "behandelt": 3172, "Januar": 3173, "dra@@": 3174, "FR": 3175, "practical": 3176, "Col@@": 3177, "bri@@": 3178, "requires": 3179, "processes": 3180, "Druck": 3181, "1,@@": 3182, "ica": 3183, "ets": 3184, "kurz": 3185, "genie\u00dfen": 3186, "cor@@": 3187, "reduction": 3188, "post": 3189, "carry": 3190, "cur@@": 3191, "Tat": 3192, "Gen@@": 3193, "Flug@@": 3194, "ast@@": 3195, "entsprechenden": 3196, "G\u00e4stebewertungen": 3197, "id@@": 3198, "geworden": 3199, "Nr.": 3200, "child": 3201, "death": 3202, "Go@@": 3203, "mes": 3204, "round": 3205, "Finanzierung": 3206, "secure": 3207, "zone": 3208, "extent": 3209, "tiv@@": 3210, "rise": 3211, "tools": 3212, "van": 3213, "wenige": 3214, "land@@": 3215, "freien": 3216, "por@@": 3217, "farmers": 3218, "voting": 3219, "minimum": 3220, "raised": 3221, "Although": 3222, "Club": 3223, "Public": 3224, "folgt": 3225, "Heute": 3226, "H\u00f6he": 3227, "historical": 3228, "verkehr": 3229, "Many": 3230, "ausgestattet": 3231, "Zweitens": 3232, "gleich@@": 3233, "gr\u00f6\u00dfte": 3234, "weg": 3235, "Sk@@": 3236, "Villa": 3237, "persons": 3238, "gefunden": 3239, "Jahrhundert": 3240, "teilen": 3241, "poor": 3242, "Center": 3243, "ok@@": 3244, "AD@@": 3245, "Republik": 3246, "hinter": 3247, "w\u00e4hlen": 3248, "haus": 3249, "vergessen": 3250, "IM@@": 3251, "Oktober": 3252, "vertreten": 3253, "burg": 3254, "Security": 3255, "highest": 3256, "29": 3257, "reference": 3258, "kten": 3259, "\u00fcr@@": 3260, "eher": 3261, "fu@@": 3262, "powers": 3263, "restaurants": 3264, "frage": 3265, "1.": 3266, "Insel": 3267, "anything": 3268, "han@@": 3269, "Berichterstatterin": 3270, "Aspekte": 3271, "school": 3272, "Konferenz": 3273, "expect": 3274, "waste": 3275, "download": 3276, "sectors": 3277, "treten": 3278, "OR@@": 3279, "under@@": 3280, "hold": 3281, "Ressourcen": 3282, "useful": 3283, "fil@@": 3284, "build": 3285, "stelle": 3286, "ju@@": 3287, "nice": 3288, "Nat\u00fcrlich": 3289, "numerous": 3290, "Angelegenheit": 3291, "mention": 3292, "Arbeitnehmer": 3293, "comprehensive": 3294, "Mu@@": 3295, "Angelegenheiten": 3296, "bl@@": 3297, "warum": 3298, "ven": 3299, "weeks": 3300, "lation": 3301, "ideas": 3302, "demokratischen": 3303, "begin": 3304, "historic": 3305, "Sicht": 3306, "mode": 3307, "domain": 3308, "denken": 3309, "Entwicklungs@@": 3310, "ir": 3311, "drive": 3312, "ov@@": 3313, "Microsoft": 3314, "os@@": 3315, "During": 3316, "richtige": 3317, "Afghanistan": 3318, "plans": 3319, "quot": 3320, "Wahl@@": 3321, "head": 3322, "zumindest": 3323, "digital": 3324, "cut": 3325, "j": 3326, "technologies": 3327, "gre@@": 3328, "ars": 3329, "ig": 3330, "tor@@": 3331, "\u00e4ren": 3332, "versucht": 3333, "5.@@": 3334, "Am@@": 3335, "erk@@": 3336, "ang@@": 3337, "namely": 3338, "stands": 3339, "operating": 3340, "Behandlung": 3341, "accordance": 3342, "\u00fcberhaupt": 3343, "schlie\u00dfen": 3344, "Sen@@": 3345, "l\u00f6sen": 3346, "St.": 3347, "distance": 3348, "geschaffen": 3349, "Basis": 3350, "danke": 3351, "businesses": 3352, "Lassen": 3353, "ders": 3354, "daily": 3355, "starting": 3356, "werk": 3357, "kl@@": 3358, "Zur": 3359, "implement": 3360, "LA@@": 3361, "Strand": 3362, "ality": 3363, "lit@@": 3364, "Fi@@": 3365, "strategic": 3366, "Min@@": 3367, "plant": 3368, "win@@": 3369, "Secondly": 3370, "adopt": 3371, "War@@": 3372, "dro@@": 3373, "airport": 3374, "lesen": 3375, "Gro\u00df@@": 3376, "Solidarit\u00e4t": 3377, "col@@": 3378, "Italien": 3379, "West@@": 3380, "Mat@@": 3381, "ire": 3382, "Selbst@@": 3383, "st\u00e4ndig": 3384, "erf\u00fcllen": 3385, "challenge": 3386, "Even": 3387, "sch\u00fctzen": 3388, "caused": 3389, "cks": 3390, "Vertrauen": 3391, "scale": 3392, "Spanien": 3393, "alone": 3394, "stated": 3395, "EC@@": 3396, "doubt": 3397, "Schwierigkeiten": 3398, "erkl\u00e4rt": 3399, "besondere": 3400, "phone": 3401, "Parteien": 3402, "wine": 3403, "news": 3404, "stell@@": 3405, "form@@": 3406, "ats": 3407, "31": 3408, "gender": 3409, "Bra@@": 3410, "sent": 3411, "lagen": 3412, "annual": 3413, "Werte": 3414, "ungsp@@": 3415, "EC": 3416, "Herausforderungen": 3417, "rich@@": 3418, "Your": 3419, "happy": 3420, "technischen": 3421, "ence": 3422, "volle": 3423, "1996": 3424, "Tagen": 3425, "scientific": 3426, "tur@@": 3427, "despite": 3428, "Ak@@": 3429, "K\u00fcche": 3430, "ready": 3431, "folgen": 3432, "Ireland": 3433, "endlich": 3434, "hen": 3435, "Fund": 3436, "NATO": 3437, "Annahme": 3438, "tungen": 3439, "wieder@@": 3440, "CA@@": 3441, "platz": 3442, "thought": 3443, "vol@@": 3444, "gewesen": 3445, "lower": 3446, "probably": 3447, "friends": 3448, "IP": 3449, "Natur@@": 3450, "verpflichtet": 3451, "B.": 3452, "initiatives": 3453, "fl@@": 3454, "Por@@": 3455, "reg@@": 3456, "Arbeitspl\u00e4tze": 3457, "transfer": 3458, "Dateien": 3459, "borders": 3460, "Vergangenheit": 3461, "Hinsicht": 3462, "maximum": 3463, "Beginn": 3464, "gew@@": 3465, "bau": 3466, "bessere": 3467, "Iraq": 3468, "nahe": 3469, "High": 3470, "Datei": 3471, "loss": 3472, "geh@@": 3473, "ner@@": 3474, "offering": 3475, "Musik": 3476, "verantwortlich": 3477, "methods": 3478, "absolutely": 3479, "nor@@": 3480, "paar": 3481, "clean": 3482, "@": 3483, "Schritte": 3484, "erinnern": 3485, "Juli": 3486, "Tor@@": 3487, "Vertreter": 3488, "sometimes": 3489, "cohesion": 3490, "sofort": 3491, "barkeit": 3492, "became": 3493, "Sport@@": 3494, "Instrument": 3495, "trying": 3496, "Wochen": 3497, "minute": 3498, "LE@@": 3499, "leaders": 3500, "The@@": 3501, "scope": 3502, "affected": 3503, "m\u00fc@@": 3504, "Mittel@@": 3505, "representatives": 3506, "anderem": 3507, "innovation": 3508, "options": 3509, "machine": 3510, "wahrscheinlich": 3511, "offered": 3512, "vollst\u00e4ndig": 3513, "Bilder": 3514, "stellung": 3515, "Gruppen": 3516, "Frieden": 3517, "method": 3518, "ord@@": 3519, "expressed": 3520, "gh@@": 3521, "h\u00f6ren": 3522, "ssen@@": 3523, "schaften": 3524, "fahr@@": 3525, "Moreover": 3526, "&apos;ll": 3527, "vorgeschlagen": 3528, "Agenda": 3529, "Inhalt": 3530, "begr\u00fc\u00dfen": 3531, "r\u00e4@@": 3532, "justice": 3533, "published": 3534, "iz@@": 3535, "village": 3536, "Opfer": 3537, "calls": 3538, "Erstens": 3539, "lernen": 3540, "Firma": 3541, "Verpflichtungen": 3542, "advantage": 3543, "ning": 3544, "lies": 3545, "sales": 3546, "Chinese": 3547, "got": 3548, "negative": 3549, "genug": 3550, "Conference": 3551, "heard": 3552, "hoch": 3553, "zahlen": 3554, "Verfassung": 3555, "accepted": 3556, "Rei@@": 3557, "kan@@": 3558, "Armut": 3559, "RO@@": 3560, "erfolgreich": 3561, "h\u00e4ufig": 3562, "gs@@": 3563, "onen": 3564, "ku@@": 3565, "reforms": 3566, "talking": 3567, "demands": 3568, "interested": 3569, "\u00e4re": 3570, "Anstrengungen": 3571, "darstellt": 3572, "entsprechend": 3573, "Staat": 3574, "While": 3575, "parking": 3576, "influence": 3577, "erfolgt": 3578, "chance": 3579, "Nicht": 3580, "wanted": 3581, "au\u00dferhalb": 3582, "Do": 3583, "languages": 3584, "Technologie": 3585, "sive": 3586, "Bur@@": 3587, "2020": 3588, "regime": 3589, "worldwide": 3590, "learn": 3591, "23@@": 3592, "Binnenmarkt": 3593, "sport": 3594, "unten": 3595, "University": 3596, "heutigen": 3597, "Gesamt@@": 3598, "Kultur@@": 3599, "gef@@": 3600, "uses": 3601, "gro@@": 3602, "Erfahrungen": 3603, "approved": 3604, "overall": 3605, "Praxis": 3606, "allgemeinen": 3607, "stets": 3608, "structural": 3609, "jeweiligen": 3610, "\u00dfen": 3611, "bewusst": 3612, "Russian": 3613, "Google": 3614, "ris@@": 3615, "confidence": 3616, "r\u00fc@@": 3617, "ators": 3618, "ette": 3619, "Thank": 3620, "ba": 3621, "gesehen": 3622, "legt": 3623, "Allerdings": 3624, "Du": 3625, "\u00f3@@": 3626, "intended": 3627, "oc@@": 3628, "crime": 3629, "privaten": 3630, "vital": 3631, "processing": 3632, "Roma": 3633, "committed": 3634, "eben": 3635, "Austria": 3636, "genutzt": 3637, "DVD": 3638, "unit": 3639, "Kriterien": 3640, "las": 3641, "proper": 3642, "anz@@": 3643, "See": 3644, "Sitzung": 3645, "eindeutig": 3646, "letzte": 3647, "ga": 3648, "priorities": 3649, "unemployment": 3650, "bitten": 3651, "conclusion": 3652, "Terrorismus": 3653, "hu@@": 3654, "apartments": 3655, "anti@@": 3656, "bur@@": 3657, "Sonder@@": 3658, "Organisationen": 3659, "quiet": 3660, "Unter": 3661, "deine": 3662, "laws": 3663, "Bad": 3664, "Web@@": 3665, "join": 3666, "laufen": 3667, "release": 3668, "Protokoll": 3669, "EL@@": 3670, "Op@@": 3671, "banks": 3672, "maintain": 3673, "modernen": 3674, "currency": 3675, "trotz": 3676, "lost": 3677, "San@@": 3678, "stan@@": 3679, "entscheiden": 3680, "att@@": 3681, "zahlreichen": 3682, "ban@@": 3683, "tabled": 3684, "historischen": 3685, "Wahlen": 3686, "pat@@": 3687, "Milliarden": 3688, "vorgelegt": 3689, "01": 3690, "beste": 3691, "pf@@": 3692, "Standard": 3693, "UK": 3694, "stress": 3695, "75": 3696, "Nations": 3697, "worked": 3698, "\u00fcbernehmen": 3699, "fields": 3700, "flexible": 3701, "separate": 3702, "Ausschu\u00df": 3703, "morning": 3704, "victims": 3705, "Airport": 3706, "neu@@": 3707, "Aufgaben": 3708, "Kinder@@": 3709, "ren": 3710, "Viele": 3711, "CH@@": 3712, "Vereinbarung": 3713, "neues": 3714, "circumstances": 3715, "Denn": 3716, "senden": 3717, "clients": 3718, "Is": 3719, "aten": 3720, "erwartet": 3721, "relationship": 3722, "stimme": 3723, "Pol@@": 3724, "ship": 3725, "Wann": 3726, "sechs": 3727, "Anerkennung": 3728, "ics": 3729, "gang": 3730, "folgenden": 3731, "rechte": 3732, "union": 3733, "sur@@": 3734, "Gemeinschafts@@": 3735, "opening": 3736, "gend": 3737, "get@@": 3738, "fish": 3739, "Haushalt": 3740, "Fin@@": 3741, "decide": 3742, "Zustimmung": 3743, "administration": 3744, "ensuring": 3745, "motion": 3746, "emissions": 3747, "images": 3748, "aler": 3749, "ley": 3750, "oben": 3751, "schwer": 3752, "nationale": 3753, "ages": 3754, "Indeed": 3755, "fine": 3756, "hinweisen": 3757, "Free": 3758, "bilden": 3759, "ful": 3760, "gr\u00f6\u00dfere": 3761, "Hel@@": 3762, "Ober@@": 3763, "PL": 3764, "players": 3765, "Chi@@": 3766, "Red": 3767, "Bri@@": 3768, "Obwohl": 3769, "Folge": 3770, "Staats@@": 3771, "Computer": 3772, "increasingly": 3773, "cre@@": 3774, "Mc@@": 3775, "Einige": 3776, "ber\u00fccksichtigen": 3777, "Berg@@": 3778, "kennen": 3779, "Den": 3780, "Urlaub": 3781, "Recht@@": 3782, "EL": 3783, "Krieg": 3784, "Not": 3785, "Einrichtung": 3786, "Partei": 3787, "25@@": 3788, "contract": 3789, "contribute": 3790, "pers\u00f6nlichen": 3791, "era": 3792, "\u00fcberzeugt": 3793, "Dazu": 3794, "Gipfel": 3795, "Flughafen": 3796, "improved": 3797, "police": 3798, "\u2122": 3799, "Sc@@": 3800, "Z": 3801, "Reformen": 3802, "gekommen": 3803, "competitive": 3804, "Mitteilung": 3805, "Stabilit\u00e4t": 3806, "Ger@@": 3807, "budgetary": 3808, "agriculture": 3809, "comments": 3810, "infrastructure": 3811, "target": 3812, "Wunsch": 3813, "cover": 3814, "Adresse": 3815, "effectively": 3816, "uni@@": 3817, "encourage": 3818, "ut": 3819, "amerikanischen": 3820, "st\u00e4rker": 3821, "sagt": 3822, "Dar@@": 3823, "off@@": 3824, "mountain": 3825, "Pu@@": 3826, "erkennen": 3827, "games": 3828, "Ju@@": 3829, "reduced": 3830, "Verb@@": 3831, "Falle": 3832, "India": 3833, "changed": 3834, "ausschlie\u00dflich": 3835, "train": 3836, "fellow": 3837, "exist": 3838, "lo": 3839, "ele@@": 3840, "enten": 3841, "green": 3842, "pr\u00fcfen": 3843, "serve": 3844, "participation": 3845, "Unterkategorien": 3846, "dringend": 3847, "erlaubt": 3848, "selection": 3849, "seines": 3850, "mission": 3851, "deutschen": 3852, "else": 3853, "Au\u00dfen@@": 3854, "vollen": 3855, "Mer@@": 3856, "whom": 3857, "braucht": 3858, "sicherzustellen": 3859, "beide": 3860, "6.@@": 3861, "ked": 3862, "glauben": 3863, "correct": 3864, "Gegen@@": 3865, "erw\u00e4hnt": 3866, "98": 3867, "ian": 3868, "Volk": 3869, "People": 3870, "Nun": 3871, "ati@@": 3872, "Sektor": 3873, "zudem": 3874, "goal": 3875, "ep@@": 3876, "Lan@@": 3877, "running": 3878, "votes": 3879, "Verwaltung": 3880, "Atmosph\u00e4re": 3881, "Only": 3882, "ving": 3883, "welches": 3884, "Bild@@": 3885, "alit\u00e4t": 3886, "aimed": 3887, "placed": 3888, "player": 3889, "freie": 3890, "ess@@": 3891, "mainly": 3892, ".000": 3893, "stable": 3894, "\u00d6@@": 3895, "Zusammen@@": 3896, "hour": 3897, "ationen": 3898, "Je@@": 3899, "specifically": 3900, "unbedingt": 3901, "zus\u00e4tzliche": 3902, "globalen": 3903, "Durchf\u00fchrung": 3904, "shopping": 3905, "sports": 3906, "kre@@": 3907, "wal@@": 3908, "selbstverst\u00e4ndlich": 3909, "At@@": 3910, "beginnen": 3911, "SP@@": 3912, "says": 3913, "discuss": 3914, "reichen": 3915, "discussed": 3916, "can@@": 3917, "gleiche": 3918, "Wettbewerbsf\u00e4higkeit": 3919, "gerecht": 3920, "tional": 3921, "bre@@": 3922, "traffic": 3923, "SE@@": 3924, "Vertrags": 3925, "planning": 3926, "ha": 3927, "Idee": 3928, "hol@@": 3929, "Personal": 3930, "supports": 3931, "Dr.": 3932, "Dann": 3933, "critical": 3934, "precisely": 3935, "partnership": 3936, "ol": 3937, "\u00b0": 3938, "Systeme": 3939, "akzeptieren": 3940, "Reise@@": 3941, "ya": 3942, "Trans@@": 3943, "Ihres": 3944, "organization": 3945, "wrong": 3946, "Cre@@": 3947, "hoffen": 3948, "sources": 3949, "normal": 3950, "schreiben": 3951, "Bre@@": 3952, "Kor@@": 3953, "gezeigt": 3954, "unbe@@": 3955, "fol@@": 3956, "transparent": 3957, "families": 3958, "defined": 3959, "rechts": 3960, "yourself": 3961, "our@@": 3962, "protected": 3963, "assessment": 3964, "Video": 3965, "bestehenden": 3966, "risks": 3967, "ou": 3968, "wo@@": 3969, "bald": 3970, "Anti@@": 3971, "enterprises": 3972, "suitable": 3973, "Grand": 3974, "schutz": 3975, "Haltung": 3976, "Sterne": 3977, "discrimination": 3978, "ON@@": 3979, "fort@@": 3980, "ergreifen": 3981, "discussions": 3982, "measure": 3983, "wesentlich": 3984, "za": 3985, "Stadt@@": 3986, "finanziellen": 3987, "zer": 3988, "strengthen": 3989, "net@@": 3990, "Wal@@": 3991, "wants": 3992, "offen": 3993, "Schlie\u00dflich": 3994, "automatically": 3995, "ungs-": 3996, "Geb\u00e4ude": 3997, "institutional": 3998, "introduced": 3999, "Code": 4000, "Fra@@": 4001, "tik": 4002, "Sol@@": 4003, "getroffen": 4004, "Falls": 4005, "ier": 4006, "Hu@@": 4007, "erzielt": 4008, "ware": 4009, "entspricht": 4010, "isches": 4011, "ue": 4012, "kam": 4013, "Vorteile": 4014, "income": 4015, "gesprochen": 4016, "automatisch": 4017, "lie@@": 4018, "referred": 4019, "guidelines": 4020, "rural": 4021, "\u00b2": 4022, "frei@@": 4023, "Nutzen": 4024, "nis": 4025, "umgesetzt": 4026, "fri@@": 4027, "sal@@": 4028, "Hause": 4029, "400": 4030, "Osten": 4031, "Aufenthalt": 4032, "trust": 4033, "Plan@@": 4034, "menu": 4035, "cities": 4036, "MA@@": 4037, "Ter@@": 4038, "benutzt": 4039, "Leute": 4040, "immigration": 4041, "sign": 4042, "speaking": 4043, "Agreement": 4044, "Can@@": 4045, "richten": 4046, "Zun\u00e4chst": 4047, "developments": 4048, "1995": 4049, "Costa": 4050, "gabe": 4051, "vis@@": 4052, "tere": 4053, "kommenden": 4054, "ON": 4055, "Restaurants": 4056, "lt": 4057, "represents": 4058, "ye": 4059, "m\u00f6glicherweise": 4060, "tisch": 4061, "Cal@@": 4062, "Ist": 4063, "introduction": 4064, "Hei@@": 4065, "sized": 4066, "festgelegt": 4067, "ismus": 4068, "likely": 4069, "PT": 4070, "mindestens": 4071, "Technologien": 4072, "uc@@": 4073, "unterschiedlichen": 4074, "visitors": 4075, "handeln": 4076, "cher@@": 4077, "exactly": 4078, "l\u00e4nder": 4079, "More": 4080, "covered": 4081, "Plan": 4082, "sitting": 4083, "daten": 4084, "Tre@@": 4085, "kaum": 4086, "enz": 4087, "Kunden@@": 4088, "Win@@": 4089, "installation": 4090, "notwendigen": 4091, "sufficient": 4092, "Tur@@": 4093, "Produkt": 4094, "w\u00fcnschen": 4095, "listed": 4096, "Privat@@": 4097, "CO2": 4098, "Le": 4099, "Prozent": 4100, "entsprechende": 4101, "anders": 4102, "closely": 4103, "30@@": 4104, "Medien": 4105, "becoming": 4106, "Rooms": 4107, "Wer": 4108, "zwei@@": 4109, "broad": 4110, "Kunst@@": 4111, "appear": 4112, "evening": 4113, "fisheries": 4114, "Homepage": 4115, "animals": 4116, "ants": 4117, "din@@": 4118, "email": 4119, "Wohn@@": 4120, "gebiet": 4121, "administrative": 4122, "detailed": 4123, "electronic": 4124, "swimming": 4125, "debt": 4126, "bt": 4127, "SA@@": 4128, "feature": 4129, "limit": 4130, "vision": 4131, "improving": 4132, "Fr\u00fchst\u00fcck": 4133, "session": 4134, "purposes": 4135, "Asia": 4136, "ban": 4137, "thousands": 4138, "God": 4139, "linked": 4140, "bathroom": 4141, "functions": 4142, "Irak": 4143, "managed": 4144, "relate": 4145, "Tier@@": 4146, "powerful": 4147, "street": 4148, "Augen": 4149, "jene": 4150, "moderne": 4151, "ge\u00e4ndert": 4152, "competitiveness": 4153, "ktionen": 4154, "oren": 4155, "Mitgliedstaat": 4156, "garden": 4157, "Gal@@": 4158, "alte": 4159, "tel@@": 4160, "ish": 4161, "ay": 4162, "format": 4163, "\u00fcn@@": 4164, "ay@@": 4165, "m\u00f6glichen": 4166, "ct": 4167, "l\u00e4@@": 4168, "beziehen": 4169, "coordination": 4170, "Spieler": 4171, "pen@@": 4172, "99": 4173, "Why": 4174, "Neben": 4175, "Vo@@": 4176, "Wein@@": 4177, "st\u00e4rken": 4178, "financing": 4179, "hof": 4180, "supporting": 4181, "ckt": 4182, "Sti@@": 4183, "condition": 4184, "Produktions@@": 4185, "represent": 4186, "Chance": 4187, "markt": 4188, "aktuelle": 4189, "entry": 4190, "rin@@": 4191, "Ur@@": 4192, "duty": 4193, "signed": 4194, "Pra@@": 4195, "Swiss": 4196, "comfort": 4197, "Funktionen": 4198, "networks": 4199, "erf\u00fcllt": 4200, "unto": 4201, "hel@@": 4202, "Greece": 4203, "spielt": 4204, "speech": 4205, "Vereinten": 4206, "\u00fcbernachten": 4207, "happen": 4208, "delivery": 4209, "bedarf": 4210, "considerable": 4211, "Forderung": 4212, "ering": 4213, "Fischerei@@": 4214, "Policy": 4215, "150": 4216, "nachdem": 4217, "freuen": 4218, "presidency": 4219, "Initiativen": 4220, "kosten@@": 4221, "zuletzt": 4222, "\u00e8@@": 4223, "Produkten": 4224, "chs": 4225, "betonen": 4226, "lig": 4227, "parliamentary": 4228, "yer": 4229, "otherwise": 4230, "Abschlie\u00dfend": 4231, "authority": 4232, "Christian": 4233, "....": 4234, "alisierung": 4235, "politics": 4236, "extensive": 4237, "fel@@": 4238, "ili@@": 4239, "Middle": 4240, "provision": 4241, "Standards": 4242, "Fest@@": 4243, "Board": 4244, "El": 4245, "Green": 4246, "win": 4247, "2011": 4248, "Innovation": 4249, "Ni@@": 4250, "gelegt": 4251, "Gesundheits@@": 4252, "Station": 4253, "B\u00fcrger@@": 4254, "bodies": 4255, "ces": 4256, "aktiv": 4257, "bra@@": 4258, "verfolgen": 4259, "dienen": 4260, "Instrumente": 4261, "Tr@@": 4262, "remember": 4263, "mehreren": 4264, "getting": 4265, "sicherlich": 4266, "spolitik": 4267, "record": 4268, "technische": 4269, "Comp@@": 4270, "ties": 4271, "\u00e4u@@": 4272, "Val@@": 4273, "erfahren": 4274, "Its": 4275, "love": 4276, "usually": 4277, "thinking": 4278, "besonderen": 4279, "earlier": 4280, "summit": 4281, "klare": 4282, "sts": 4283, "95": 4284, "Abgeordnete": 4285, "Kre@@": 4286, "erzielen": 4287, "bal@@": 4288, "cke": 4289, "wert": 4290, "De": 4291, "ring": 4292, "Economic": 4293, "Hor@@": 4294, "Kenntnis": 4295, "siehe": 4296, "Star": 4297, "hervor@@": 4298, "collection": 4299, "Berichte": 4300, "vermeiden": 4301, "don@@": 4302, "Karte": 4303, "Regelung": 4304, "sing": 4305, "properly": 4306, "langen": 4307, "warten": 4308, "fre@@": 4309, "lands": 4310, "Social": 4311, "facing": 4312, "operations": 4313, "medi@@": 4314, "Familien@@": 4315, "spar@@": 4316, "zug": 4317, "genannt": 4318, "arbeitet": 4319, "ide@@": 4320, "suggest": 4321, "Then": 4322, "z.": 4323, "Fo@@": 4324, "arbeit": 4325, "Zudem": 4326, "bestimmt": 4327, "door": 4328, "beschlossen": 4329, "Inhalte": 4330, "dealing": 4331, "7.@@": 4332, "Mess@@": 4333, "Spa": 4334, "metres": 4335, "MO@@": 4336, "Sar@@": 4337, "entschieden": 4338, "path": 4339, "rit@@": 4340, ",@@": 4341, "difficulties": 4342, "endes": 4343, "worth": 4344, "understanding": 4345, "vorgesehen": 4346, "spirit": 4347, "tr\u00e4gt": 4348, "Zeichen": 4349, "teil@@": 4350, "Pan@@": 4351, "mil@@": 4352, "verf\u00fcgbar": 4353, "w\u00e4ren": 4354, "Brussels": 4355, "Stimme": 4356, "Private": 4357, "positions": 4358, "48": 4359, "gefordert": 4360, "sage": 4361, "rau@@": 4362, "stadt": 4363, "sol@@": 4364, "Vielfalt": 4365, "Bet@@": 4366, "W\u00e4hrung": 4367, "refer": 4368, "una": 4369, "animal": 4370, "tics": 4371, "Kern@@": 4372, "wenden": 4373, "au\u00dfer": 4374, "zz@@": 4375, "founded": 4376, "33": 4377, "erh\u00f6hen": 4378, "anderes": 4379, "terrace": 4380, "deten": 4381, "Ausbildung": 4382, "Ausgaben": 4383, "Imp@@": 4384, "charged": 4385, "Monate": 4386, "--": 4387, "Schutz@@": 4388, "followed": 4389, "inf@@": 4390, "Wieder@@": 4391, "Einrichtungen": 4392, "Beitritt": 4393, "konkrete": 4394, "presence": 4395, "lich@@": 4396, "February": 4397, "verbessert": 4398, "ach": 4399, "T\u00e4tigkeit": 4400, "warm": 4401, "Gr@@": 4402, "stoffe": 4403, "consideration": 4404, "lige": 4405, "Forschungs@@": 4406, "Pri@@": 4407, "shop": 4408, "Fonds": 4409, "une": 4410, "Dollar": 4411, "seh@@": 4412, "Anspruch": 4413, "pr\u00e4@@": 4414, "screen": 4415, "wahr@@": 4416, "Bush": 4417, "Multi@@": 4418, "Pakistan": 4419, "hear": 4420, "losen": 4421, "Abschluss": 4422, "freue": 4423, "Bor@@": 4424, "Konzept": 4425, "ine@@": 4426, "werte": 4427, "programs": 4428, "entirely": 4429, "Research": 4430, "students": 4431, "bes": 4432, "expected": 4433, "DA@@": 4434, "anyone": 4435, "experts": 4436, "MS": 4437, "Schul@@": 4438, "element": 4439, "save": 4440, "benutzen": 4441, "combat": 4442, "digen": 4443, "track": 4444, "white": 4445, "Hotel@@": 4446, "ID": 4447, "Pat@@": 4448, "hy@@": 4449, "opened": 4450, "\u00c4@@": 4451, "are@@": 4452, "seem": 4453, "nisse": 4454, "wood": 4455, "tour": 4456, "&apos;re": 4457, "medical": 4458, "promoting": 4459, "ik": 4460, "camera": 4461, "97": 4462, "purchase": 4463, "bek@@": 4464, "com": 4465, "selected": 4466, "Anwendungen": 4467, "Ver\u00e4nderungen": 4468, "Each": 4469, "paper": 4470, "south": 4471, "Einigung": 4472, "mark": 4473, "\u00dcber": 4474, "Stellungnahme": 4475, "\u00dfe": 4476, "threat": 4477, "Einfluss": 4478, "applies": 4479, "voller": 4480, "ID@@": 4481, "ada": 4482, "Engagement": 4483, "gruppen": 4484, "EG": 4485, "Unfortunately": 4486, "generation": 4487, "stock": 4488, "bung": 4489, "ty@@": 4490, "Apartments": 4491, "Transport": 4492, "tourist": 4493, "Hy@@": 4494, "greifen": 4495, "f\u00e4llt": 4496, "tro@@": 4497, "plants": 4498, "Achtung": 4499, "Kindern": 4500, "pr@@": 4501, "Gebieten": 4502, "finanzielle": 4503, "Gemeinsamen": 4504, "produ@@": 4505, "began": 4506, "Lesung": 4507, "tier@@": 4508, "humanitarian": 4509, "ki": 4510, "Just": 4511, "defence": 4512, "rie@@": 4513, "flexibility": 4514, "Verwaltungs@@": 4515, "darunter": 4516, "dor@@": 4517, "rent": 4518, "seriously": 4519, "Familien": 4520, "http": 4521, "walking": 4522, "Best": 4523, "connected": 4524, "SO@@": 4525, "Suche": 4526, "ften": 4527, "informed": 4528, "served": 4529, "sten@@": 4530, "born": 4531, "elegant": 4532, "establishment": 4533, "tourism": 4534, "Besuch": 4535, "34": 4536, "Frankfurt": 4537, "Belarus": 4538, "exclusive": 4539, "Wege": 4540, "Poland": 4541, "played": 4542, "Lei@@": 4543, "Sil@@": 4544, "Czech": 4545, "Switzerland": 4546, "funktioniert": 4547, "sed": 4548, "\u00e1": 4549, "components": 4550, "laden": 4551, "fund": 4552, "spend": 4553, "Schengen": 4554, "darstellen": 4555, "gelangen": 4556, "multi@@": 4557, "l\u00e4uft": 4558, "adoption": 4559, "politischer": 4560, "son@@": 4561, "actual": 4562, "Zeitraum": 4563, "mente": 4564, "Ga@@": 4565, "criminal": 4566, "implementing": 4567, "client": 4568, "Dienste": 4569, "aims": 4570, "ausdr\u00fccklich": 4571, "hands": 4572, "marketing": 4573, "origin": 4574, "glich": 4575, "Antrag": 4576, "War": 4577, "difference": 4578, "plus": 4579, "Status": 4580, "testen": 4581, "mo": 4582, "Einhaltung": 4583, "appears": 4584, "ona": 4585, "Priorit\u00e4ten": 4586, "gg@@": 4587, "Installation": 4588, "richtigen": 4589, "min": 4590, "stein": 4591, "nahme": 4592, "aspect": 4593, "Firstly": 4594, "myself": 4595, "feld": 4596, "domestic": 4597, "ins@@": 4598, "96": 4599, "Because": 4600, "topic": 4601, "durchaus": 4602, "Open": 4603, "Programms": 4604, "gew\u00e4hrleistet": 4605, "Enterprise": 4606, "Worte": 4607, "Zweifel": 4608, "m\u00f6glichst": 4609, "unver@@": 4610, "Fre@@": 4611, "opposition": 4612, "Sea": 4613, "gruppe": 4614, "nung": 4615, "dagegen": 4616, "practices": 4617, "Rede": 4618, "entweder": 4619, "playing": 4620, "average": 4621, "monetary": 4622, "pe": 4623, "eri@@": 4624, "map": 4625, "Modell": 4626, "inc@@": 4627, "Sub@@": 4628, "buy": 4629, "gungen": 4630, "con": 4631, "St\u00e4rkung": 4632, "Forderungen": 4633, "ther@@": 4634, "erstellt": 4635, "konzentrieren": 4636, "wider@@": 4637, "fixed": 4638, ".00": 4639, "erkl\u00e4ren": 4640, "Jetzt": 4641, "wollte": 4642, "Industrie@@": 4643, "election": 4644, "Mil@@": 4645, "diskutieren": 4646, "PS": 4647, "Kontakt": 4648, "ends": 4649, "einiger": 4650, "eingehen": 4651, "zeiten": 4652, "Char@@": 4653, "nation": 4654, "alismus": 4655, "Eur@@": 4656, "failure": 4657, "attempt": 4658, "r\u00fcck@@": 4659, "vehicles": 4660, "bedingungen": 4661, "meetings": 4662, "Leistungen": 4663, "ils": 4664, "Herausforderung": 4665, "Sprachen": 4666, "lokalen": 4667, "\u0161@@": 4668, "estate": 4669, "euch": 4670, "apos;s": 4671, "Wer@@": 4672, "geleistet": 4673, "ill@@": 4674, "kur@@": 4675, "won": 4676, "schutz@@": 4677, "differences": 4678, "Warum": 4679, "tiges": 4680, "zentrum": 4681, "happened": 4682, "balanced": 4683, "tungs@@": 4684, "Guest": 4685, "select": 4686, "Stra\u00dfe": 4687, "Menge": 4688, "Pl@@": 4689, "let@@": 4690, "Klima@@": 4691, "dungen": 4692, "Bundes@@": 4693, "pol@@": 4694, "Sommer": 4695, "sam@@": 4696, "peaceful": 4697, "welcher": 4698, "kulturellen": 4699, "Justice": 4700, "Arbeiten": 4701, "Dennoch": 4702, "reducing": 4703, "statements": 4704, "buildings": 4705, "Kingdom": 4706, "aren": 4707, "Barroso": 4708, "structures": 4709, "36": 4710, "teil": 4711, "propose": 4712, "Ant@@": 4713, "ws": 4714, "geschehen": 4715, "reisen": 4716, "easier": 4717, "achten": 4718, "heraus@@": 4719, "char@@": 4720, "Met@@": 4721, "UR@@": 4722, "Ara@@": 4723, "prior": 4724, "respond": 4725, "Agrar@@": 4726, "Europeans": 4727, "Human": 4728, "My@@": 4729, "gelegen": 4730, "houses": 4731, "jederzeit": 4732, "Vielen": 4733, "recognition": 4734, "Fer@@": 4735, "ists": 4736, "nt": 4737, "beds": 4738, "concrete": 4739, "calling": 4740, "Forum": 4741, "Mio.": 4742, "Hauses": 4743, "195@@": 4744, "Nord@@": 4745, "rat": 4746, "64": 4747, "EM@@": 4748, "forget": 4749, "lichem": 4750, "ines": 4751, "Aufnahme": 4752, "nis@@": 4753, "producers": 4754, "Kunst": 4755, "feststellen": 4756, "emp@@": 4757, "erfolgen": 4758, "numbers": 4759, "Sorge": 4760, "fahrt": 4761, "tt@@": 4762, "Reg@@": 4763, "ara": 4764, "Leider": 4765, "vorge@@": 4766, "Tro@@": 4767, "dient": 4768, "instance": 4769, "speziell": 4770, "stellte": 4771, "genuine": 4772, "inside": 4773, "8.@@": 4774, "betrachtet": 4775, "Kal@@": 4776, "Wel@@": 4777, "Mag@@": 4778, "finance": 4779, "Arbeitslosigkeit": 4780, "Afrika": 4781, "Aspekt": 4782, "Madrid": 4783, "Bon@@": 4784, "gave": 4785, "ow@@": 4786, "Vergleich": 4787, "informieren": 4788, "acts": 4789, "Zweck": 4790, "teilweise": 4791, "went": 4792, "fresh": 4793, "Ban@@": 4794, "regionalen": 4795, "regular": 4796, "hilfe": 4797, "Bei@@": 4798, "unacceptable": 4799, "lungs@@": 4800, "Q": 4801, "generally": 4802, "24@@": 4803, "hingewiesen": 4804, "pre": 4805, "app@@": 4806, "arten": 4807, "Dokument": 4808, "demokratische": 4809, "harmon@@": 4810, "ahead": 4811, "gegenw\u00e4rtigen": 4812, "ordnung": 4813, "sicherheit": 4814, "Analyse": 4815, "becomes": 4816, "mischen": 4817, "schwierig": 4818, "Download": 4819, "US@@": 4820, "ko": 4821, "2013": 4822, "larger": 4823, "Hal@@": 4824, "l\u00e4ndern": 4825, "angesprochen": 4826, "Ja@@": 4827, "told": 4828, "sie@@": 4829, "verfolgt": 4830, "unterst\u00fctze": 4831, "Dra@@": 4832, "tin": 4833, "Pr\u00e4@@": 4834, "introduce": 4835, "Once": 4836, "ISO": 4837, "\u00dc@@": 4838, "voice": 4839, "gewinnen": 4840, "d.": 4841, "klicken": 4842, "dank": 4843, "weapons": 4844, "guarantees": 4845, "immediate": 4846, "ast": 4847, "n\u00e4chste": 4848, "gegenw\u00e4rtig": 4849, "agencies": 4850, "cs": 4851, "items": 4852, "halt": 4853, "phase": 4854, "unabh\u00e4ngig": 4855, "Webseite": 4856, "Teile": 4857, "Kan@@": 4858, "Schweiz": 4859, "asylum": 4860, "Paket": 4861, "Partnerschaft": 4862, "spe@@": 4863, "Obama": 4864, "dangerous": 4865, "telephone": 4866, "Februar": 4867, "Mis@@": 4868, "Stand": 4869, "unfortunately": 4870, "economies": 4871, "med": 4872, "Not@@": 4873, "EADS": 4874, "Zeiten": 4875, "ory": 4876, "MP@@": 4877, "f\u00e4higkeit": 4878, "geeignet": 4879, "liber@@": 4880, "ots": 4881, "PHP": 4882, "sektor": 4883, "Sy@@": 4884, "evidence": 4885, "insurance": 4886, "Klein@@": 4887, "John": 4888, "liebe": 4889, "Hol@@": 4890, "picture": 4891, "zy@@": 4892, "Wa@@": 4893, "Wirtschaft@@": 4894, "raise": 4895, "impossible": 4896, "Angesichts": 4897, "ologie": 4898, "Sport": 4899, "\u00dcberwachung": 4900, "hor@@": 4901, "elected": 4902, "37": 4903, "Ja": 4904, "Korea": 4905, "seek": 4906, "t\u00e4tig": 4907, "According": 4908, "Meiner": 4909, "consumption": 4910, "angezeigt": 4911, "mittel@@": 4912, "Qualit\u00e4ts@@": 4913, "detail": 4914, "gl@@": 4915, "starke": 4916, "Uni@@": 4917, "sion@@": 4918, "improvement": 4919, "Gro\u00dfbritannien": 4920, "fordert": 4921, "display": 4922, "trading": 4923, "eli@@": 4924, "pla@@": 4925, "wonderful": 4926, "erscheint": 4927, "establishing": 4928, "Irland": 4929, "district": 4930, "carefully": 4931, "machines": 4932, "Entwicklungen": 4933, "associated": 4934, "Golf": 4935, "gestalten": 4936, "Richtlinien": 4937, "dennoch": 4938, "stei@@": 4939, "Pass@@": 4940, "Wor@@": 4941, "Angaben": 4942, "Priorit\u00e4t": 4943, "winter": 4944, "experienced": 4945, "jeweils": 4946, "\u00fcbrigen": 4947, "Film": 4948, "Fl@@": 4949, "wenigen": 4950, "Hintergrund": 4951, "anlagen": 4952, "Last": 4953, "alt": 4954, "erleben": 4955, "folgende": 4956, "wel@@": 4957, "auto@@": 4958, "Democrats": 4959, "Verpflichtung": 4960, "lin": 4961, "entstehen": 4962, "Stra@@": 4963, "65": 4964, "territory": 4965, "membership": 4966, "Regelungen": 4967, "ierungs@@": 4968, "qui@@": 4969, "inform": 4970, "African": 4971, "dec@@": 4972, "handel": 4973, "Check": 4974, "unterschiedliche": 4975, "erstellen": 4976, "\u00fcberpr\u00fcfen": 4977, "core": 4978, "dete": 4979, "ungs": 4980, "Texte": 4981, "Street": 4982, "kraft": 4983, "shared": 4984, "erungs@@": 4985, "religious": 4986, "Wissen": 4987, "Gleichzeitig": 4988, "Problemen": 4989, "Regulation": 4990, "desire": 4991, "gain": 4992, "Informations@@": 4993, "PPE": 4994, "Bewertung": 4995, "kla@@": 4996, "ying": 4997, "reservation": 4998, "truly": 4999, "database": 5000, "f\u00fchrenden": 5001, "ben\u00f6tigt": 5002, "vorliegenden": 5003, "absolut": 5004, "bear": 5005, "typical": 5006, "ah": 5007, "spent": 5008, "photo": 5009, "ank@@": 5010, "fear": 5011, "advanced": 5012, "Fil@@": 5013, "igkeit": 5014, "urgent": 5015, "usw.": 5016, "closer": 5017, "gets": 5018, "Br\u00fcssel": 5019, "stand@@": 5020, "tan@@": 5021, "Bro@@": 5022, "minister": 5023, "passed": 5024, "besuchen": 5025, "uren": 5026, "wishes": 5027, "Name": 5028, "conclusions": 5029, "continued": 5030, "figures": 5031, "perspective": 5032, "schafts@@": 5033, "Pla@@": 5034, "erforderlichen": 5035, "obtain": 5036, "reicht": 5037, "Auto": 5038, "Turkish": 5039, "eingerichtet": 5040, "ver\u00f6ffentlicht": 5041, "Globalisierung": 5042, "Polen": 5043, "helpful": 5044, "1994": 5045, "50@@": 5046, "strongly": 5047, "sierung": 5048, "t\u00e4glich": 5049, "Han@@": 5050, "tradition": 5051, "3D": 5052, "cards": 5053, "Irish": 5054, "participate": 5055, "einsetzen": 5056, "Herstellung": 5057, "Internet@@": 5058, "Kat@@": 5059, "Fortschritt": 5060, "continues": 5061, "ill": 5062, "zen@@": 5063, "Association": 5064, "loc@@": 5065, "cal@@": 5066, "positiv": 5067, "schul@@": 5068, "sides": 5069, "Br@@": 5070, "Griechenland": 5071, "candidate": 5072, "sensitive": 5073, "halt@@": 5074, "spending": 5075, "Cam@@": 5076, "\u00d6sterreich": 5077, "Gesch\u00e4ftsordnung": 5078, "Rechnung": 5079, "satz": 5080, "convinced": 5081, "profitieren": 5082, "campaign": 5083, "49": 5084, "Che@@": 5085, "komp@@": 5086, "rightly": 5087, "Spe@@": 5088, "Beteiligung": 5089, "models": 5090, "sses": 5091, "Del@@": 5092, "Entwurf": 5093, "announced": 5094, "stes": 5095, "zuge@@": 5096, "Mitteln": 5097, "enormous": 5098, "tasks": 5099, "Meter": 5100, "Palestinian": 5101, "bro@@": 5102, "sort": 5103, "eingef\u00fchrt": 5104, "sichern": 5105, "vorhanden": 5106, "08": 5107, "absolute": 5108, "Tour": 5109, "drawn": 5110, "sam": 5111, "rot@@": 5112, "ort@@": 5113, "abkommen": 5114, "Home": 5115, "bio@@": 5116, "character": 5117, "paragraph": 5118, "9.@@": 5119, "Foreign": 5120, "Preis@@": 5121, "fun@@": 5122, "Worten": 5123, "systeme": 5124, "Stellen": 5125, "article": 5126, "allowing": 5127, "Nevertheless": 5128, "plan@@": 5129, "availability": 5130, "commitments": 5131, "gel\u00f6st": 5132, "kitchen": 5133, "poss": 5134, "exercise": 5135, "t\u00e4@@": 5136, "hab@@": 5137, "pers\u00f6nlich": 5138, "geschrieben": 5139, "Vol@@": 5140, "honourable": 5141, "leader": 5142, "Mitte": 5143, "greatest": 5144, "himself": 5145, "SI@@": 5146, "institution": 5147, "tal": 5148, "Net@@": 5149, "aufmerksam": 5150, "described": 5151, "alo@@": 5152, "sions": 5153, "verbundenen": 5154, "bin@@": 5155, "Air": 5156, "ll@@": 5157, "Kompromiss": 5158, "sh": 5159, "Formen": 5160, "Most": 5161, "Verkehr": 5162, "miteinander": 5163, "Constitution": 5164, "Erkl\u00e4rungen": 5165, "dliche": 5166, "Grenz@@": 5167, "unless": 5168, "sets": 5169, "contrary": 5170, "export": 5171, "Gesetz": 5172, "band": 5173, "Tu@@": 5174, "cker": 5175, "remind": 5176, "combination": 5177, "Arten": 5178, "definition": 5179, "ong": 5180, "Durch@@": 5181, "suite": 5182, "weiterer": 5183, "Elemente": 5184, "fun": 5185, "shops": 5186, "55": 5187, "Agentur": 5188, "Lam@@": 5189, "haft": 5190, "Test@@": 5191, "Verkehrs@@": 5192, "acht": 5193, "gene": 5194, "outcome": 5195, "reasonable": 5196, "fiscal": 5197, "wesentlichen": 5198, "Due": 5199, "comment": 5200, "pan@@": 5201, "Lie@@": 5202, "season": 5203, "studies": 5204, "Wil@@": 5205, "Ski@@": 5206, "print": 5207, "Prime": 5208, "Bed\u00fcrfnisse": 5209, "ek": 5210, "Prinzip": 5211, "ges@@": 5212, "ET@@": 5213, "umfasst": 5214, "offensichtlich": 5215, "M\u00e4rkte": 5216, "Casino": 5217, "Kommunikation": 5218, "Moment": 5219, "beteiligt": 5220, "equality": 5221, "ei": 5222, "firm": 5223, "bauen": 5224, "my@@": 5225, "someone": 5226, "translation": 5227, "kar@@": 5228, "Gesch@@": 5229, "Entschlie\u00dfungsantrag": 5230, "einander": 5231, "Super@@": 5232, "Garten": 5233, "Kritik": 5234, "stimmt": 5235, "f\u00fchrte": 5236, "Ma\u00dfe": 5237, "tin@@": 5238, "Santa": 5239, "sieren": 5240, "imp@@": 5241, "possibilities": 5242, "installed": 5243, "elles": 5244, "zufrieden": 5245, "USB": 5246, "nennen": 5247, "Jahrhunderts": 5248, "Ziel@@": 5249, "Trade": 5250, "achieving": 5251, "angeboten": 5252, "franz\u00f6sischen": 5253, "laid": 5254, "600": 5255, "wan@@": 5256, "Indien": 5257, "42": 5258, "Beihilfen": 5259, "Sinn": 5260, "pra@@": 5261, "ase": 5262, "l\u00f6@@": 5263, "packages": 5264, "gesch\u00fctzt": 5265, "A5": 5266, "ambitious": 5267, "stone": 5268, "advance": 5269, "museum": 5270, "names": 5271, "best\u00e4tigt": 5272, "sicht@@": 5273, "forced": 5274, "38": 5275, "entitled": 5276, "07": 5277, "Bio@@": 5278, "ese": 5279, "She": 5280, "colleague": 5281, "attractive": 5282, "DI@@": 5283, "permanent": 5284, "800": 5285, "Hersteller": 5286, "mini@@": 5287, "organised": 5288, "controls": 5289, "manage": 5290, "umfassende": 5291, "Post@@": 5292, "s\u00e4mtliche": 5293, "Europ\u00e4er": 5294, "Grundsatz": 5295, "Rot@@": 5296, "Absatz": 5297, "disease": 5298, "reliable": 5299, "Rat@@": 5300, "court": 5301, "schlagen": 5302, "Breakfast": 5303, "steigen": 5304, "gem": 5305, "yesterday": 5306, "ECU": 5307, "cia": 5308, "Abend": 5309, "Aktionen": 5310, "failed": 5311, "nations": 5312, "obviously": 5313, "Fraktionen": 5314, "payments": 5315, "verlassen": 5316, "Volks@@": 5317, "expenditure": 5318, "Bank@@": 5319, "ously": 5320, "Ideen": 5321, "Mann": 5322, "f\u00fchr@@": 5323, "obligations": 5324, "ppe": 5325, "09": 5326, "courses": 5327, "cuisine": 5328, "garantiert": 5329, "Voll@@": 5330, "devices": 5331, "ess": 5332, "individuals": 5333, "mag": 5334, "ote": 5335, "Besucher": 5336, "oll@@": 5337, "registered": 5338, "Empfehlungen": 5339, "oh@@": 5340, "st\u00e4ndigen": 5341, "gr\u00f6\u00dferen": 5342, "exhibition": 5343, "keinerlei": 5344, "Control": 5345, "contain": 5346, "IL@@": 5347, "Pro": 5348, "Gr\u00fcnde": 5349, "totally": 5350, "zo@@": 5351, "neither": 5352, "ppen": 5353, "Vielzahl": 5354, "internationaler": 5355, "gn@@": 5356, "Health": 5357, "enables": 5358, "stattfinden": 5359, "ante": 5360, "ca.": 5361, "claims": 5362, "initial": 5363, "t-01": 5364, "brand": 5365, "dri@@": 5366, "middle": 5367, "granted": 5368, "ini": 5369, "TI@@": 5370, "factors": 5371, "zentrale": 5372, "scht": 5373, "stische": 5374, "mische": 5375, "Kl@@": 5376, "GB": 5377, "heiten": 5378, "Regel": 5379, "ically": 5380, "Anteil": 5381, "s.@@": 5382, "Saint": 5383, "combined": 5384, "stehenden": 5385, "lang@@": 5386, "nationaler": 5387, "unable": 5388, "post@@": 5389, "ti": 5390, "rechtlichen": 5391, "staaten": 5392, "Netherlands": 5393, "mehr@@": 5394, "learning": 5395, "super@@": 5396, "ien@@": 5397, "kaufen": 5398, "dt": 5399, "dig@@": 5400, "Umfang": 5401, "completed": 5402, "Agency": 5403, "His": 5404, "Im@@": 5405, "Yet": 5406, "PDF": 5407, "m\u00f6gliche": 5408, "wil@@": 5409, "Such": 5410, "Eastern": 5411, "vorgeschlagenen": 5412, "etten": 5413, "Kredit@@": 5414, "arms": 5415, "Banken": 5416, "inen": 5417, "Foundation": 5418, "nden": 5419, "gest@@": 5420, "promotion": 5421, "listen": 5422, "intervention": 5423, "finde": 5424, "Gebiete": 5425, "advertising": 5426, "cars": 5427, "Great": 5428, "Player": 5429, "button": 5430, "Stil": 5431, "Treffen": 5432, "compared": 5433, "moving": 5434, "pointed": 5435, "ausreichend": 5436, "black": 5437, "Fisch@@": 5438, "Komfort": 5439, "resort": 5440, "Nieder@@": 5441, "solcher": 5442, "erter": 5443, "hot": 5444, "gelungen": 5445, "Verh\u00e4ltnis": 5446, "tly": 5447, "Terrasse": 5448, "expression": 5449, "deep": 5450, "Nu@@": 5451, "mass": 5452, "continuing": 5453, "isten": 5454, "spacious": 5455, "\u2022": 5456, "club": 5457, "independence": 5458, "architecture": 5459, "kept": 5460, "betrachten": 5461, "pleasant": 5462, "tierung": 5463, "LO@@": 5464, "j\u00fcngsten": 5465, "2,@@": 5466, "ausschuss": 5467, "agency": 5468, "Flexibilit\u00e4t": 5469, "recommendations": 5470, "Druck@@": 5471, "geln": 5472, "strengthening": 5473, "bs@@": 5474, "attack": 5475, "fire": 5476, "prevention": 5477, "platform": 5478, "Inn": 5479, "limits": 5480, "eg@@": 5481, "extended": 5482, "\u00fcberall": 5483, "strategie": 5484, "BA@@": 5485, "Botschaft": 5486, "Gott": 5487, "Pen@@": 5488, "gro\u00dfes": 5489, "aff@@": 5490, "Nicht@@": 5491, "PO@@": 5492, "See@@": 5493, "Liberalisierung": 5494, "north": 5495, "starken": 5496, "spricht": 5497, "l\u00e4nger": 5498, "asking": 5499, "garantieren": 5500, "sch\u00f6nen": 5501, "imm@@": 5502, "Hoffnung": 5503, "targets": 5504, "erh\u00e4lt": 5505, "Ereignisse": 5506, "lia": 5507, "Mitgliedern": 5508, "merely": 5509, "claim": 5510, "Bus@@": 5511, "Realit\u00e4t": 5512, "released": 5513, "vorschlagen": 5514, "write": 5515, "ion": 5516, "iss@@": 5517, "Kirche": 5518, "install": 5519, "Grunde": 5520, "Links": 5521, "Every": 5522, "staatlichen": 5523, "Don@@": 5524, "grounds": 5525, "sale": 5526, "spezielle": 5527, "werke": 5528, "betroffenen": 5529, "mas": 5530, "television": 5531, "dre@@": 5532, "oper@@": 5533, "wirken": 5534, "hren": 5535, "allgemeine": 5536, "mechanism": 5537, "gliche": 5538, "Manager": 5539, "responsibilities": 5540, "monitor": 5541, "science": 5542, "h.": 5543, "nachhaltige": 5544, "Gast@@": 5545, "situations": 5546, "teren": 5547, "va@@": 5548, "drin@@": 5549, "bringing": 5550, "britischen": 5551, "entsprechen": 5552, "Gei@@": 5553, "beinhaltet": 5554, "best@@": 5555, "danach": 5556, "sport@@": 5557, "jo@@": 5558, "s\u00e4tze": 5559, "festgestellt": 5560, "Verkehr@@": 5561, "einfache": 5562, "storage": 5563, "Media": 5564, "pictures": 5565, ",000": 5566, "\u00fcbertragen": 5567, "IA": 5568, "Verst\u00e4ndnis": 5569, "Summit": 5570, "conclude": 5571, "All@@": 5572, "consensus": 5573, "keeping": 5574, "tiven": 5575, "Hin@@": 5576, "sy@@": 5577, "1990": 5578, "zeichnet": 5579, "corporate": 5580, "f\u00e4lle": 5581, "'s": 5582, "Koordinierung": 5583, "Risiken": 5584, "binding": 5585, "skills": 5586, "legung": 5587, "obvious": 5588, "wider": 5589, "Greek": 5590, "piece": 5591, "putting": 5592, "liert": 5593, "massive": 5594, "attacks": 5595, "break": 5596, "rufen": 5597, "stischen": 5598, "Liefer@@": 5599, "programm": 5600, "Betrieb": 5601, "regeln": 5602, "Another": 5603, "einverstanden": 5604, "governance": 5605, "ably": 5606, "goals": 5607, "Eindruck": 5608, "acceptable": 5609, "0,@@": 5610, "Leistung": 5611, "arrival": 5612, "memory": 5613, "welt": 5614, "foot": 5615, "tors": 5616, "zeichen": 5617, "abgeschlossen": 5618, "gro\u00df": 5619, "vier@@": 5620, "Cu@@": 5621, "Gesetzgebung": 5622, "betroffen": 5623, "Cap@@": 5624, "Niveau": 5625, "fit": 5626, "iv@@": 5627, "substantial": 5628, "etc.": 5629, "lieren": 5630, "Studio": 5631, "lauf@@": 5632, "contained": 5633, "Geld@@": 5634, "Star@@": 5635, "ker@@": 5636, "meters": 5637, "gegr\u00fcndet": 5638, "dlich": 5639, "Diskriminierung": 5640, "color": 5641, "TH@@": 5642, "Thus": 5643, "biggest": 5644, "changing": 5645, "accessible": 5646, "angeht": 5647, "beaches": 5648, "chtung": 5649, "daraus": 5650, "posi@@": 5651, "Titel": 5652, "railway": 5653, "weight": 5654, "uner@@": 5655, "ancient": 5656, "geschieht": 5657, "verloren": 5658, "ture": 5659, "lan": 5660, "RO": 5661, "tried": 5662, "ersch@@": 5663, "seeking": 5664, "vehicle": 5665, "Gegenteil": 5666, "Voraussetzungen": 5667, "race": 5668, "43": 5669, "capable": 5670, "signal": 5671, "Beschreibung": 5672, "Monat": 5673, "ek@@": 5674, "Bil@@": 5675, "gol@@": 5676, "mittels": 5677, "Erh\u00f6hung": 5678, "advice": 5679, "Aufbau": 5680, "erfordert": 5681, "gri@@": 5682, "umwelt@@": 5683, "Risiko": 5684, "factor": 5685, "gebaut": 5686, "informiert": 5687, "background": 5688, "Jeder": 5689, "device": 5690, "IN": 5691, "amp@@": 5692, "ys@@": 5693, "sonst": 5694, "\u00f6l@@": 5695, "gent@@": 5696, "Market": 5697, "flu@@": 5698, "39": 5699, "nu@@": 5700, "si": 5701, "Fol@@": 5702, "reden": 5703, "Pr\u00fcfung": 5704, "\u00dcberpr\u00fcfung": 5705, "communities": 5706, "Patienten": 5707, "Methode": 5708, "politisch": 5709, "85": 5710, "Mac@@": 5711, "chosen": 5712, "discussing": 5713, "successfully": 5714, "Deutsche": 5715, "Note": 5716, "eiten": 5717, "sse@@": 5718, "zogen": 5719, "Handel@@": 5720, "Zwei@@": 5721, "\u00e4l@@": 5722, "Rad@@": 5723, "Mindest@@": 5724, "perfectly": 5725, "werk@@": 5726, "ple@@": 5727, "sper@@": 5728, "wagen": 5729, "Hon@@": 5730, "Menschenrechts@@": 5731, "compliance": 5732, "maintenance": 5733, "Alliance": 5734, "saw": 5735, "Politiker": 5736, "addressed": 5737, "ata": 5738, "Sehensw\u00fcrdigkeiten": 5739, "constantly": 5740, "operate": 5741, "interface": 5742, "spaces": 5743, "z\u00e4hlen": 5744, "Wo@@": 5745, "besitzt": 5746, ".0@@": 5747, "nearby": 5748, "\u00f6n@@": 5749, "smoking": 5750, "Prodi": 5751, "auss@@": 5752, "dimension": 5753, "sun": 5754, "Ren@@": 5755, "deliver": 5756, "surface": 5757, "gutes": 5758, "hergestellt": 5759, "modern@@": 5760, "story": 5761, "Innen@@": 5762, "England": 5763, "fying": 5764, "Gr\u00f6\u00dfe": 5765, "extend": 5766, "relax": 5767, "41": 5768, "glichen": 5769, "ry@@": 5770, "coffee": 5771, "syn@@": 5772, "Is@@": 5773, "ile": 5774, "testing": 5775, "Werk@@": 5776, "Can": 5777, "orders": 5778, "rechten": 5779, "Besch\u00e4ftigungs@@": 5780, "surrounding": 5781, "zuvor": 5782, "bezeichnet": 5783, "Grundrechte": 5784, "Mass@@": 5785, "Tal@@": 5786, "buffet": 5787, "besseren": 5788, "dia": 5789, "thereby": 5790, "dedicated": 5791, "Support": 5792, "Start": 5793, "wichtigste": 5794, "Zahlungs@@": 5795, "it\u00e4t": 5796, "dienst": 5797, "qualified": 5798, "guaranteed": 5799, "update": 5800, "beginnt": 5801, "diskutiert": 5802, "recommend": 5803, "gezogen": 5804, "planned": 5805, "Unabh\u00e4ngigkeit": 5806, "erh\u00f6ht": 5807, "Ap@@": 5808, "Institute": 5809, "speziellen": 5810, "Phase": 5811, "Those": 5812, "fuel": 5813, "kts": 5814, "Tradition": 5815, "bildung": 5816, "empfehlen": 5817, "Romania": 5818, "dynamic": 5819, "physical": 5820, "valid": 5821, "haltung": 5822, "rapid": 5823, "Gegensatz": 5824, "Are": 5825, "ball": 5826, "Hinweis": 5827, "punkt": 5828, "wall": 5829, "Wettbewerbs@@": 5830, "tierten": 5831, "seven": 5832, "soli@@": 5833, "einzigen": 5834, "1992": 5835, "explain": 5836, "Schl\u00fcssel@@": 5837, "zeu@@": 5838, "sw@@": 5839, "op3": 5840, "host": 5841, "Resort": 5842, "gere": 5843, "Syn@@": 5844, "beg@@": 5845, "andererseits": 5846, "echte": 5847, "Kontroll@@": 5848, "Kraft@@": 5849, "causes": 5850, "manchmal": 5851, "fort": 5852, "tal@@": 5853, "Environment": 5854, "diversity": 5855, "ised": 5856, "ME@@": 5857, "IR@@": 5858, "11.@@": 5859, "talks": 5860, "entgegen@@": 5861, "fac@@": 5862, "Company": 5863, "Bestandteil": 5864, "betont": 5865, "wirtschaft": 5866, "ently": 5867, "technological": 5868, "Generation": 5869, "K\u00f6nigreich": 5870, "ierungen": 5871, "sicherstellen": 5872, "urge": 5873, "coast": 5874, "recovery": 5875, "approximately": 5876, "zei@@": 5877, "Palace": 5878, "alism": 5879, "category": 5880, "zus\u00e4tzlich": 5881, "l\u00e4ndlichen": 5882, "ola": 5883, "q": 5884, "Vertrags@@": 5885, "ziel@@": 5886, "Michael": 5887, "reagieren": 5888, "globale": 5889, "zur\u00fcckzu@@": 5890, "gehalten": 5891, "haupts\u00e4chlich": 5892, "Card": 5893, "lauf": 5894, "multiple": 5895, "III": 5896, "200@@": 5897, "Willen": 5898, "Zahlen": 5899, "urban": 5900, "Minutes": 5901, "Wirkung": 5902, "determined": 5903, "Technik": 5904, "attractions": 5905, "ella": 5906, "Besch@@": 5907, "Sweden": 5908, "Universit\u00e4t": 5909, "evaluation": 5910, "positiven": 5911, "reception": 5912, "Cha@@": 5913, "Netzwerk": 5914, "schu@@": 5915, "Dimension": 5916, "Welche": 5917, "Anpassung": 5918, "ester": 5919, "aircraft": 5920, "ane": 5921, "chs@@": 5922, "alisation": 5923, "ligen": 5924, "mechanisms": 5925, "shower": 5926, "Internationalen": 5927, "contents": 5928, "r\u00e4ume": 5929, "bewegen": 5930, "booking": 5931, "Festival": 5932, "Teilen": 5933, "Vienna": 5934, "Click": 5935, "adequate": 5936, "Eigen@@": 5937, "Klicken": 5938, "fung": 5939, "object": 5940, "Struktur@@": 5941, "dealt": 5942, "derzeitigen": 5943, "Hamburg": 5944, "vollkommen": 5945, "Time": 5946, "wodurch": 5947, "ari": 5948, "competence": 5949, "examples": 5950, "44": 5951, "seitens": 5952, "older": 5953, "Latin": 5954, "Sur@@": 5955, "treated": 5956, "Nutzer": 5957, "vari@@": 5958, "47": 5959, "Klimawandel": 5960, "Begriff": 5961, "\u00d6l@@": 5962, "bezieht": 5963, "Fran@@": 5964, "tsch@@": 5965, "National@@": 5966, "PR@@": 5967, "disposal": 5968, "fte": 5969, "mutual": 5970, "Mel@@": 5971, "trip": 5972, "beauty": 5973, "h\u00e4ngt": 5974, "bahn": 5975, "cm": 5976, "decades": 5977, "haften": 5978, "river": 5979, "Data": 5980, "conduct": 5981, "Kyoto": 5982, "Ratspr\u00e4sident": 5983, "delay": 5984, "identity": 5985, "sia": 5986, "vers": 5987, "160": 5988, "dan@@": 5989, "jungen": 5990, "Austrian": 5991, "tic@@": 5992, "Fu\u00df": 5993, "techn@@": 5994, "schem": 5995, "tigkeit": 5996, "Rules": 5997, "ai": 5998, "stations": 5999, "Bedarf": 6000, "Infrastruktur": 6001, "F\u00e4lle": 6002, "schlie\u00dft": 6003, "sanctions": 6004, "window": 6005, "sun@@": 6006, "Innen": 6007, "Bedenken": 6008, "oli@@": 6009, "Ebenso": 6010, "F\u00fchrung": 6011, "ausschusses": 6012, "EU@@": 6013, "Kollege": 6014, "church": 6015, "investments": 6016, "lar": 6017, "Einklang": 6018, "wesen": 6019, "26@@": 6020, "Fla@@": 6021, "eit@@": 6022, "multi": 6023, "guide": 6024, "Paul": 6025, "f\u00e4llen": 6026, "weit@@": 6027, "approval": 6028, "blo@@": 6029, "leads": 6030, "representative": 6031, "akzeptiert": 6032, "spread": 6033, "Reaktion": 6034, "Vorteil": 6035, "consultation": 6036, "emb@@": 6037, "Gel@@": 6038, "Pf@@": 6039, "Pap@@": 6040, "Dienst": 6041, "bekannten": 6042, "waiting": 6043, "brings": 6044, "square": 6045, "eng": 6046, "sicht": 6047, "Grunds\u00e4tze": 6048, "\u00dcbereinkommen": 6049, "komplett": 6050, "quote": 6051, "industries": 6052, "pal@@": 6053, "zustimmen": 6054, "discover": 6055, "luxury": 6056, "zugleich": 6057, "Diskussionen": 6058, "Ber\u00fccksichtigung": 6059, "stra\u00dfe": 6060, "Ke@@": 6061, "Gesetze": 6062, "Leitlinien": 6063, "engine": 6064, "k\u00fcrzlich": 6065, "drei@@": 6066, "sinn@@": 6067, "affect": 6068, "existence": 6069, "Unterschiede": 6070, "\\": 6071, "outstanding": 6072, "recognise": 6073, "resulting": 6074, "Unternehmens@@": 6075, "End@@": 6076, "tlich": 6077, "unternommen": 6078, "Peter": 6079, "Vorbereitung": 6080, "association": 6081, "welchen": 6082, "Struktur": 6083, "flight": 6084, "kin@@": 6085, "regret": 6086, "Anliegen": 6087, "Wirtschafts-": 6088, "Sanktionen": 6089, "ero@@": 6090, "trifft": 6091, "Express": 6092, "guter": 6093, "ney": 6094, "relaxing": 6095, "tests": 6096, "tru@@": 6097, "matische": 6098, "Anlagen": 6099, "befassen": 6100, "emphasise": 6101, "eng@@": 6102, "extreme": 6103, "spezi@@": 6104, "02": 6105, "Projekt@@": 6106, "drugs": 6107, "pers\u00f6nliche": 6108, "praktisch": 6109, "H\u00e4lfte": 6110, "Tele@@": 6111, "patients": 6112, "ingly": 6113, "vielmehr": 6114, "Square": 6115, "primary": 6116, "tiv": 6117, "artists": 6118, "196@@": 6119, "igung": 6120, "fonds": 6121, "intensive": 6122, "m2": 6123, "nochmals": 6124, "bericht": 6125, "Fotos": 6126, "previously": 6127, "regionale": 6128, "registration": 6129, "bit@@": 6130, "books": 6131, "holidays": 6132, "einerseits": 6133, "46": 6134, "fern": 6135, "ations@@": 6136, "letter": 6137, ".de": 6138, "Martin": 6139, "leistungs@@": 6140, "stoffen": 6141, "konkreten": 6142, "Out@@": 6143, "digung": 6144, "ery": 6145, "Pic@@": 6146, "primarily": 6147, "Option": 6148, "Ost@@": 6149, "attitude": 6150, "gewisse": 6151, "president": 6152, "M\u00e4nner": 6153, "schneller": 6154, "Sonnen@@": 6155, "kostenlos": 6156, "Energy": 6157, "ama": 6158, "tives": 6159, "relativ": 6160, "remove": 6161, "Nachfolgend": 6162, "vorzu@@": 6163, "05": 6164, "fla@@": 6165, "besch\u00e4ftigt": 6166, "betreffen": 6167, "Beifall": 6168, "Methoden": 6169, "Nacht": 6170, "Strategien": 6171, "truth": 6172, "Fischerei": 6173, "Flash": 6174, "az@@": 6175, "Umst\u00e4nden": 6176, "disaster": 6177, "06": 6178, "block": 6179, "liability": 6180, "ports": 6181, "F\u00e4higkeit": 6182, "Federal": 6183, "f\u00fchlen": 6184, "stat@@": 6185, "tar@@": 6186, "dly": 6187, "highlight": 6188, "Reise": 6189, "amongst": 6190, "ela": 6191, "reply": 6192, "bereiche": 6193, "sobald": 6194, "ado": 6195, "entwicklung": 6196, "delegation": 6197, "Located": 6198, "Off@@": 6199, "menten": 6200, "Pin@@": 6201, "manufacturing": 6202, "speakers": 6203, "turned": 6204, "beh\u00f6rden": 6205, "institutionellen": 6206, "species": 6207, "siert": 6208, "soft": 6209, "j\u00e4hrlich": 6210, "Firmen": 6211, "dig": 6212, "ssystem": 6213, "leiden": 6214, "standing": 6215, "temporary": 6216, "anten": 6217, "herzlich": 6218, "Vertr\u00e4ge": 6219, "improvements": 6220, "wing": 6221, "route": 6222, "title": 6223, "Vis@@": 6224, "bul@@": 6225, "mountains": 6226, "represented": 6227, "Gro@@": 6228, "cause-01": 6229, "participants": 6230, "NI": 6231, "ergeben": 6232, "weiteres": 6233, "damals": 6234, ",00": 6235, "glass": 6236, "Erde": 6237, "atur@@": 6238, "dy@@": 6239, "resolve": 6240, "Safety": 6241, "pension": 6242, "Both": 6243, "funktion@@": 6244, "refugees": 6245, "tig@@": 6246, "meaning": 6247, "treaty": 6248, "Sor@@": 6249, "obligation": 6250, "verlieren": 6251, "verst\u00e4rkt": 6252, "enst@@": 6253, "fall@@": 6254, "flow": 6255, "Charakter": 6256, "Global": 6257, "onto": 6258, "ous@@": 6259, "versions": 6260, "\u00dft": 6261, "burden": 6262, "consists": 6263, "tens": 6264, "V\u00f6lker": 6265, "Musik@@": 6266, "knows": 6267, "leadership": 6268, "rail": 6269, "regelm\u00e4\u00dfig": 6270, "\u00e9s": 6271, "gew\u00e4hlt": 6272, "nearly": 6273, "smaller": 6274, "ge\u00f6ffnet": 6275, "mpf@@": 6276, "Landwirte": 6277, "Versuch": 6278, "beachten": 6279, "requested": 6280, "\u0438@@": 6281, "rejected": 6282, "Seine": 6283, "appeal": 6284, "driving": 6285, "tex@@": 6286, "fraud": 6287, "politicians": 6288, "ber\u00fchmten": 6289, "compensation": 6290, "dit@@": 6291, "dlichen": 6292, "abh\u00e4ngig": 6293, "denk@@": 6294, "gestern": 6295, "valuable": 6296, "vel@@": 6297, "As@@": 6298, "Bru@@": 6299, "Milit\u00e4r@@": 6300, "spezifischen": 6301, "surrounded": 6302, "xi@@": 6303, "Camp@@": 6304, "behandeln": 6305, "profit": 6306, "ising": 6307, "Motor@@": 6308, "Any": 6309, "affairs": 6310, "nte": 6311, "Beach": 6312, "kra@@": 6313, "notice": 6314, "stellungen": 6315, "anerkannt": 6316, "u.": 6317, "Chamber": 6318, "High@@": 6319, "Empfehlung": 6320, "Farb@@": 6321, "Mus@@": 6322, "Waren": 6323, "intention": 6324, "wichtiges": 6325, "dritten": 6326, "sha@@": 6327, "Ordnung": 6328, "prepare": 6329, "Lord": 6330, "accounts": 6331, "faced": 6332, "comply": 6333, "touch": 6334, "zimmer": 6335, "\u00f1@@": 6336, "tis": 6337, "taxes": 6338, "St\u00e4dte": 6339, "speci@@": 6340, "Verbrechen": 6341, "f\u00fchrer": 6342, "Ul@@": 6343, "web@@": 6344, "Ma\u00dfnahme": 6345, "kinds": 6346, "tag@@": 6347, "Dokumente": 6348, "w\u00fcr@@": 6349, "Effizienz": 6350, "ned": 6351, "Dor@@": 6352, "solve": 6353, "forest": 6354, "verlangen": 6355, "genen": 6356, "Nachdem": 6357, "Wegen": 6358, "Aussicht": 6359, "Stu@@": 6360, "consistent": 6361, "Vil@@": 6362, "Inseln": 6363, "dienste": 6364, "Britain": 6365, "-03": 6366, "eight": 6367, "manufacturers": 6368, "sky": 6369, "Arbeit@@": 6370, "NL": 6371, "person@@": 6372, "Trotz": 6373, "combating": 6374, "entered": 6375, "Rechts": 6376, "einzelne": 6377, "Indi@@": 6378, "io": 6379, "Unternehmens": 6380, "renewable": 6381, "03": 6382, "bars": 6383, "Cro@@": 6384, "rel@@": 6385, "firstly": 6386, "lungen": 6387, "store": 6388, "Antworten": 6389, "bers": 6390, "forum": 6391, "helping": 6392, "Weitere": 6393, "Gef\u00fchl": 6394, "Thanks": 6395, "Gleich@@": 6396, "Prot@@": 6397, "work@@": 6398, "junge": 6399, "wealth": 6400, "Voraussetzung": 6401, "tierte": 6402, "Fon@@": 6403, "iti@@": 6404, "Unterkunft": 6405, "Bis": 6406, "satellite": 6407, "Teilnahme": 6408, "pleasure": 6409, "Bewegung": 6410, "Licht": 6411, "Tiere": 6412, "k\u00fcnftig": 6413, "Despite": 6414, "Beim": 6415, "TO@@": 6416, "Agrarpolitik": 6417, "Delegation": 6418, "q@@": 6419, "ett@@": 6420, "fr\u00fcher": 6421, "landscape": 6422, "liefern": 6423, "zufolge": 6424, "03@@": 6425, "mobility": 6426, "significantly": 6427, "substances": 6428, "GDP": 6429, "opposite": 6430, "basiert": 6431, "peoples": 6432, "suffering": 6433, "Grenze": 6434, "Vielleicht": 6435, "Laufe": 6436, "ath@@": 6437, "fighting": 6438, "keiner": 6439, "\u00fcbernommen": 6440, "Amerika": 6441, "Teil@@": 6442, "istischen": 6443, "Verbraucher@@": 6444, "drug": 6445, "ly@@": 6446, "contemporary": 6447, "ED@@": 6448, "ater": 6449, "kli@@": 6450, "User": 6451, "TR@@": 6452, "traditionellen": 6453, "grundlegenden": 6454, "danger": 6455, "emphasis": 6456, "gei@@": 6457, "van@@": 6458, "anbieten": 6459, "exists": 6460, "flo@@": 6461, "Bay": 6462, "whatever": 6463, "250": 6464, "gemein@@": 6465, "gert": 6466, "Untersuchung": 6467, "seien": 6468, "Flu@@": 6469, "Ausland": 6470, "miss@@": 6471, "1993": 6472, "by@@": 6473, "deiner": 6474, "marked": 6475, "Studie": 6476, "ey": 6477, "yp@@": 6478, "Dutch": 6479, "ktes": 6480, "ole": 6481, "Rezeption": 6482, "Tagung": 6483, "heits@@": 6484, "Cas@@": 6485, "Entwicklungsl\u00e4ndern": 6486, "recognised": 6487, "schools": 6488, "tim@@": 6489, "Jahres@@": 6490, "continent": 6491, "directives": 6492, "Java": 6493, "southern": 6494, "S.@@": 6495, "constructive": 6496, "copy": 6497, "pul@@": 6498, "strength": 6499, "Mein": 6500, "Other": 6501, "ols": 6502, "involving": 6503, "Find": 6504, "Forsch@@": 6505, "Paper": 6506, "Hi@@": 6507, "default": 6508, "umfassenden": 6509, "delivered": 6510, "fen@@": 6511, "val@@": 6512, "sche@@": 6513, "Absicht": 6514, "sch\u00f6ne": 6515, "officials": 6516, "Ratsvorsitz": 6517, "barer": 6518, "error": 6519, "Geist": 6520, "respective": 6521, "pres@@": 6522, "schi@@": 6523, "mitteln": 6524, "figure": 6525, "markt@@": 6526, "Bat@@": 6527, "bas@@": 6528, "tra": 6529, "steel": 6530, "oral": 6531, "\u00f3n": 6532, "Men@@": 6533, "AM@@": 6534, "Definition": 6535, "erin": 6536, "Allgemeinen": 6537, "Aufgrund": 6538, "ran": 6539, "SA": 6540, "oni": 6541, "Royal": 6542, "register": 6543, "requests": 6544, "Skype": 6545, "dge": 6546, "Ministers": 6547, "extension": 6548, "lake": 6549, "Suite": 6550, "angemessen": 6551, "applicable": 6552, "Details": 6553, "Fern@@": 6554, "acting": 6555, "Day": 6556, "cy@@": 6557, "mandate": 6558, "Maria": 6559, "fail": 6560, "wesentliche": 6561, "Rome": 6562, "niemand": 6563, "rapporteurs": 6564, "schwierigen": 6565, "sta": 6566, "Medi@@": 6567, "gegangen": 6568, "Ferner": 6569, "involvement": 6570, "Netz@@": 6571, "bezug": 6572, "Link": 6573, "alle@@": 6574, "fan@@": 6575, "bath": 6576, "furnished": 6577, "White": 6578, "ct@@": 6579, "menschlichen": 6580, "deutsche": 6581, "ships": 6582, "19.": 6583, "genauso": 6584, "bildet": 6585, "&apos;ve": 6586, "operators": 6587, "ideale": 6588, "lig@@": 6589, "mar": 6590, "wait": 6591, "felt": 6592, "kat@@": 6593, "lichkeiten": 6594, "n\u00f6tig": 6595, "Sprach@@": 6596, "charges": 6597, "schlag": 6598, "protecting": 6599, "zweifellos": 6600, "reflect": 6601, "wiederum": 6602, "presentation": 6603, "Freude": 6604, "Sie@@": 6605, "feeling": 6606, "klar@@": 6607, "setzung": 6608, "arrangements": 6609, "finding": 6610, "Mehr": 6611, "istische": 6612, "millions": 6613, "Live": 6614, "breite": 6615, "m\u00e4\u00dfig": 6616, "personally": 6617, "86": 6618, "Hostelsclub": 6619, "opposed": 6620, "ernst": 6621, "hr": 6622, "tran@@": 6623, "liberalisation": 6624, "ehemaligen": 6625, "Cat@@": 6626, "Front": 6627, "Pil@@": 6628, "aktive": 6629, "z\u00e4hlt": 6630, "Strategy": 6631, "launched": 6632, "alization": 6633, "dic@@": 6634, "Far@@": 6635, "Veranstaltungen": 6636, "stal@@": 6637, "Rahmen@@": 6638, "Ve@@": 6639, "Versch@@": 6640, "\u00e7@@": 6641, "photos": 6642, "stellten": 6643, "optimal": 6644, "criticism": 6645, "expectations": 6646, "Rec@@": 6647, "lern": 6648, "0er": 6649, "acy": 6650, "author": 6651, "jemand": 6652, "werfen": 6653, "lie": 6654, "Charter": 6655, "Abkommens": 6656, "happens": 6657, "zunehmend": 6658, "naturally": 6659, "gef\u00f6rdert": 6660, "heavy": 6661, "sis": 6662, "Prin@@": 6663, "bru@@": 6664, "Bus": 6665, "Vom": 6666, "ena": 6667, "spezifische": 6668, "shape": 6669, "Normen": 6670, "ip@@": 6671, "wh@@": 6672, "Before": 6673, "diseases": 6674, "trag@@": 6675, "Erd@@": 6676, "Shop": 6677, "ket": 6678, "lers": 6679, "staatliche": 6680, "tut": 6681, "Gentoo": 6682, "qualit\u00e4t": 6683, "zed": 6684, "Island": 6685, "debates": 6686, "aufen": 6687, "karte": 6688, "Angebote": 6689, "Doppel@@": 6690, "Staat@@": 6691, "air@@": 6692, "Via": 6693, "frie@@": 6694, "Strukturfonds": 6695, "Tit@@": 6696, "ux": 6697, "chter": 6698, "holding": 6699, "Air@@": 6700, "Buch": 6701, "dates": 6702, "Wahrheit": 6703, "ged": 6704, "stoff@@": 6705, "Kri@@": 6706, "aller@@": 6707, "rasch": 6708, "sehe": 6709, "fle@@": 6710, "happening": 6711, "tischer": 6712, "Blo@@": 6713, "SS": 6714, "Stunde": 6715, "cap@@": 6716, "weltweiten": 6717, "advantages": 6718, "serves": 6719, "A4": 6720, "Verhalten": 6721, "discharge": 6722, "fur@@": 6723, "ize": 6724, "ear@@": 6725, "ala": 6726, "lar@@": 6727, "mid": 6728, "Zustand": 6729, "mini": 6730, "repeat": 6731, "od@@": 6732, "21.": 6733, "Sch\u00e4den": 6734, "int": 6735, "schei@@": 6736, "sell": 6737, "whilst": 6738, "onic": 6739, "Cli@@": 6740, "USD": 6741, "log": 6742, "Ir@@": 6743, "Fi": 6744, "ming": 6745, "DS@@": 6746, "Harmonisierung": 6747, "producing": 6748, "dige": 6749, "nten": 6750, "tliche": 6751, "Freunde": 6752, "h\u00f6chste": 6753, "quick": 6754, "wissenschaftlichen": 6755, "expertise": 6756, "Dublin": 6757, "alt@@": 6758, "eye": 6759, "gli@@": 6760, "Gedanken": 6761, "soweit": 6762, "Teilnehmer": 6763, "Schw@@": 6764, "Verf\u00fcgbarkeit": 6765, "alter": 6766, "defend": 6767, "fruit": 6768, "confirmed": 6769, "Pflicht": 6770, "J": 6771, "equally": 6772, "bedeuten": 6773, "Nahen": 6774, "Sehr": 6775, "Liebe": 6776, "GNU": 6777, "Plaza": 6778, "parallel": 6779, "Vit@@": 6780, "arb@@": 6781, "sofern": 6782, "ought": 6783, "weshalb": 6784, "centres": 6785, "terrorist": 6786, "h\u00f6here": 6787, "proof": 6788, "sieben": 6789, "\u00dcberzeugung": 6790, "Ton@@": 6791, "Sam@@": 6792, "opinions": 6793, "spiel": 6794, "stehende": 6795, "betreffenden": 6796, "Winter": 6797, "sch\u00e4tzen": 6798, "zung": 6799, "healthy": 6800, "k\u00fcnftigen": 6801, "constant": 6802, "texts": 6803, "700": 6804, "Altstadt": 6805, "Klimaanlage": 6806, "heim": 6807, "zus\u00e4tzlichen": 6808, "Anfragen": 6809, "appreciate": 6810, "possible-01": 6811, "Farben": 6812, "runs": 6813, "cha@@": 6814, "produktion": 6815, "websites": 6816, "Schweden": 6817, "Weiter@@": 6818, "blu@@": 6819, "browser": 6820, "fordere": 6821, "radio": 6822, "AT": 6823, "skin": 6824, "s\u00e4@@": 6825, "Drittl\u00e4ndern": 6826, "Letz@@": 6827, "tigung": 6828, "Rau@@": 6829, "destination": 6830, "reaching": 6831, "Nice": 6832, "diverse": 6833, "grundlegende": 6834, "industrie": 6835, "Van": 6836, "bun@@": 6837, "Regime": 6838, "covers": 6839, "Poker": 6840, "resolutions": 6841, "fand": 6842, "Airbus": 6843, "arbeit@@": 6844, "Festlegung": 6845, "liger": 6846, "sum": 6847, "Swedish": 6848, "migration": 6849, "1000": 6850, "Verbesserungen": 6851, "contributions": 6852, "fassen": 6853, "sionen": 6854, "Instead": 6855, "gratulieren": 6856, "Datenbank": 6857, "-91": 6858, "Stre@@": 6859, "restrictions": 6860, "ri": 6861, "spa@@": 6862, "arch@@": 6863, "Lebens": 6864, "Action": 6865, "kes": 6866, "Apartment": 6867, "Box": 6868, "Schaden": 6869, "length": 6870, "Eigenschaften": 6871, "locations": 6872, "aufzunehmen": 6873, "stoff": 6874, "Dadurch": 6875, "latter": 6876, "umzusetzen": 6877, "Erwartungen": 6878, "beh\u00f6rde": 6879, "audio": 6880, "units": 6881, "iere": 6882, "hostels": 6883, "italienischen": 6884, "n\u00e4her": 6885, "Wirklichkeit": 6886, "historische": 6887, "kulturelle": 6888, "Kombination": 6889, "93": 6890, "anda": 6891, "determine": 6892, "sch\u00e4@@": 6893, "2012": 6894, "Format": 6895, "ergriffen": 6896, "ziemlich": 6897, "Landschaft": 6898, "except": 6899, "\u00c4nderungsantr\u00e4gen": 6900, "Post": 6901, "gere@@": 6902, "ward": 6903, "recht@@": 6904, "Jean": 6905, "Lebensmittel@@": 6906, "Technology": 6907, "dens": 6908, "ined": 6909, "Vorschl\u00e4gen": 6910, "shi@@": 6911, "parliaments": 6912, "st\u00e4ndige": 6913, "Menschen@@": 6914, "hoher": 6915, "satz@@": 6916, "KMU": 6917, "\u00eda": 6918, "Waffen": 6919, "aufgefordert": 6920, "gische": 6921, "prove": 6922, "schen@@": 6923, "Angriff": 6924, "Ruhe": 6925, "Kapital@@": 6926, "entscheidend": 6927, "f\u00e4hig": 6928, "LI@@": 6929, "Two": 6930, "Test": 6931, "fal@@": 6932, "Gesch\u00e4ft@@": 6933, "abgelehnt": 6934, "trafficking": 6935, "MEPs": 6936, "ken@@": 6937, "collective": 6938, "Ratspr\u00e4sidentschaft": 6939, "hafte": 6940, "recommendation": 6941, "sch\u00f6n": 6942, "Betriebs@@": 6943, "tag": 6944, "unden": 6945, "Aqu@@": 6946, "niemals": 6947, "Lake": 6948, "Stra\u00dfen@@": 6949, "heit@@": 6950, "Telefon": 6951, "allgemein": 6952, "awareness": 6953, "ett": 6954, "begonnen": 6955, "def@@": 6956, "Stellung": 6957, "\u0430@@": 6958, "EF@@": 6959, "e.g.": 6960, "App@@": 6961, "olo@@": 6962, "alized": 6963, "direkten": 6964, "kurzem": 6965, "woh@@": 6966, "amounts": 6967, "Gemeinschaft@@": 6968, "friend": 6969, "Zugriff": 6970, "JavaScript": 6971, "bek\u00e4mpfen": 6972, "ci": 6973, "ungsprozess": 6974, "strategies": 6975, "privacy": 6976, "relatively": 6977, "seite": 6978, "\u00dcbereinstimmung": 6979, "Ladies": 6980, "f\u00e4l@@": 6981, "passengers": 6982, "ies@@": 6983, "Financial": 6984, "sold": 6985, "tical": 6986, "Bahnhof": 6987, "Mehr@@": 6988, "Ohne": 6989, "Tran@@": 6990, "regulatory": 6991, "Wider@@": 6992, "eigen@@": 6993, "Westen": 6994, "\u010d@@": 6995, "eter": 6996, "f\u00fcr@@": 6997, "Rum\u00e4nien": 6998, "nah@@": 6999, "articles": 7000, "anstatt": 7001, "define": 7002, "urs": 7003, "Liber@@": 7004, "bert": 7005, "entwickelten": 7006, "Mittelpunkt": 7007, "Regierungs@@": 7008, "begl\u00fcckw\u00fcnschen": 7009, "lebens@@": 7010, "ye@@": 7011, "Pool": 7012, "f\u00fchrende": 7013, "hervorheben": 7014, "Formular": 7015, "moved": 7016, "requirement": 7017, "intend": 7018, "minority": 7019, "S\u00fcd@@": 7020, "largely": 7021, "gesellschaft": 7022, "Gold": 7023, "gone": 7024, "messen": 7025, "organ@@": 7026, "Entwicklungsl\u00e4nder": 7027, "Spiele": 7028, "begann": 7029, "interessiert": 7030, "Strukturen": 7031, "Where": 7032, "ement": 7033, "named": 7034, "sm@@": 7035, "COM": 7036, "Komp@@": 7037, "e.@@": 7038, "handling": 7039, "vern@@": 7040, "Cyprus": 7041, "Monetary": 7042, "experiences": 7043, "Zimmern": 7044, "bor@@": 7045, "51": 7046, "conflicts": 7047, "Beispiele": 7048, "Ci@@": 7049, "Einstellung": 7050, "Ther@@": 7051, "i.e.": 7052, "Auftrag": 7053, "ausgezeichneten": 7054, "Eis@@": 7055, "increases": 7056, "ths": 7057, "Lab@@": 7058, "IP@@": 7059, "exclusively": 7060, "sei@@": 7061, "riesigen": 7062, "Justiz": 7063, "Punkten": 7064, "S\u00fc@@": 7065, "cial": 7066, "contracts": 7067, "spa": 7068, "Rule": 7069, "Bulgaria": 7070, "erscheinen": 7071, "reich": 7072, "waters": 7073, "freiheit": 7074, "isi@@": 7075, "k\u00e4@@": 7076, "tele@@": 7077, "w\u00fcnsche": 7078, "Gener@@": 7079, "UNO": 7080, "gerichtet": 7081, "golf": 7082, "Haus@@": 7083, "Lehr@@": 7084, "master": 7085, "Emissionen": 7086, "cl@@": 7087, "Material": 7088, "Vision": 7089, "dem@@": 7090, "04": 7091, "Karten": 7092, "helps": 7093, "ministers": 7094, "Port@@": 7095, "involve": 7096, "male": 7097, "BSE": 7098, "Holz@@": 7099, "Ob@@": 7100, "cel@@": 7101, "TS": 7102, "erer": 7103, "Croatia": 7104, "Rotary": 7105, "Unterschied": 7106, "wa": 7107, "Enjoy": 7108, "erheblich": 7109, "schla@@": 7110, "welfare": 7111, "welt@@": 7112, "Arbeitspl\u00e4tzen": 7113, "Mur@@": 7114, "ja@@": 7115, "sur": 7116, "Ausf\u00fchrungen": 7117, "Shi@@": 7118, "gener": 7119, "offenen": 7120, "teilnehmen": 7121, "ato": 7122, "nachhaltigen": 7123, "sorgt": 7124, "SMEs": 7125, "herr@@": 7126, "obtained": 7127, "zugunsten": 7128, "Experten": 7129, "bem\u00fcht": 7130, "hon@@": 7131, "wirtschaftlicher": 7132, "Geh@@": 7133, "IF@@": 7134, "Straf@@": 7135, "falsch": 7136, "amerikanische": 7137, "verlangt": 7138, "S\u00fcden": 7139, "wirksam": 7140, "Kla@@": 7141, "Kategorie": 7142, "removed": 7143, "spanischen": 7144, "kleiner": 7145, "Sitz": 7146, "engineering": 7147, "ethnic": 7148, "willing": 7149, "hilft": 7150, "seeing": 7151, "Nachfrage": 7152, "PA": 7153, "ams": 7154, "chain": 7155, "meat": 7156, "port@@": 7157, "haus@@": 7158, "annehmen": 7159, "preise": 7160, "enc@@": 7161, "unmittelbar": 7162, "licht": 7163, "Kenn@@": 7164, "gers": 7165, "stru@@": 7166, "setz@@": 7167, ".....": 7168, "Information@@": 7169, "K\u00f6rper": 7170, "dur@@": 7171, "urspr\u00fcnglichen": 7172, "DA": 7173, "obje@@": 7174, "recommended": 7175, "k\u00e4mpfen": 7176, "20.": 7177, "MySQL": 7178, "facilitate": 7179, "ni": 7180, "Berufs@@": 7181, "tho@@": 7182, "\u0435@@": 7183, "reise": 7184, "facts": 7185, "lat@@": 7186, "cul@@": 7187, "issued": 7188, "ized": 7189, "logical": 7190, "volume": 7191, "nat\u00fcrlichen": 7192, "zust\u00e4ndigen": 7193, "zentralen": 7194, "chung": 7195, "schafft": 7196, "mmen": 7197, "precise": 7198, "Benutzer@@": 7199, "auer": 7200, "ved": 7201, "Hauptstadt": 7202, "Stadtzentrum": 7203, "wit@@": 7204, "Ei@@": 7205, "Nein": 7206, "discovered": 7207, "output": 7208, "trotzdem": 7209, "operational": 7210, "sters": 7211, "automatic": 7212, "Tats\u00e4chlich": 7213, "dos": 7214, "struktur@@": 7215, "BO@@": 7216, "Bau": 7217, "direkte": 7218, "erg@@": 7219, "Drittens": 7220, "120": 7221, "Architektur": 7222, "bestand": 7223, "communications": 7224, "komme": 7225, "Ob": 7226, "heraus": 7227, "1991": 7228, "gaben": 7229, "verabschiedet": 7230, "ee": 7231, "preparation": 7232, "ausgezeichnete": 7233, "controlled": 7234, "fs": 7235, "1989": 7236, "Tod": 7237, "ads": 7238, "angemessene": 7239, "worse": 7240, "Einkaufs@@": 7241, "lautet": 7242, "woman": 7243, "anische": 7244, "Nov@@": 7245, "Sand@@": 7246, "berechtigt": 7247, "Plenum": 7248, "en-": 7249, "assist": 7250, "BIP": 7251, "Krankheiten": 7252, "Regierungskonferenz": 7253, "command": 7254, "separ@@": 7255, "Anlage": 7256, "durchzuf\u00fchren": 7257, "identify": 7258, "lag": 7259, "Open@@": 7260, "ny": 7261, "rer": 7262, "Bahn": 7263, "amp": 7264, "helped": 7265, "effectiveness": 7266, "origin@@": 7267, "verstanden": 7268, "digt": 7269, "inzwischen": 7270, "David": 7271, "Executive": 7272, "Tages@@": 7273, "ash": 7274, "gegen@@": 7275, "ht": 7276, "h\u00f6@@": 7277, "ll": 7278, "Serie": 7279, "convenient": 7280, "fill": 7281, "head@@": 7282, "installiert": 7283, "judicial": 7284, "Klima": 7285, "Steuern": 7286, "notwendige": 7287, "52": 7288, "Au\u00dfenpolitik": 7289, "ction": 7290, "dene": 7291, "Verringerung": 7292, "ativen": 7293, "Real": 7294, "objects": 7295, "Zoll@@": 7296, "er\u00f6ffnet": 7297, "ures": 7298, "besitzen": 7299, "\u00f6ffnen": 7300, "Den@@": 7301, "Freiheiten": 7302, "blood": 7303, "Mitgliedschaft": 7304, "glad": 7305, "grateful": 7306, "sinnvoll": 7307, "willkommen": 7308, "Comm@@": 7309, "Einbeziehung": 7310, "subsidies": 7311, "verkehrs": 7312, "ver\u00e4ndert": 7313, "vorgenommen": 7314, "wie@@": 7315, "10.@@": 7316, "Kooperation": 7317, "sischen": 7318, "Ev@@": 7319, "understood": 7320, "depends": 7321, "Kunde": 7322, "Materialien": 7323, "ai@@": 7324, "clu@@": 7325, "Beweis": 7326, "spring": 7327, "yes": 7328, "zulassen": 7329, "Schule": 7330, "Vereinbarungen": 7331, "hervorragende": 7332, "illa": 7333, "exceptional": 7334, ".org": 7335, "Europol": 7336, "Kind": 7337, "Minderheiten": 7338, "streets": 7339, "occasion": 7340, "proved": 7341, "creates": 7342, "organizations": 7343, "schl\u00e4gt": 7344, "bequem": 7345, "ched": 7346, "wasser@@": 7347, "customs": 7348, "klaren": 7349, "A3@@": 7350, "Charta": 7351, "G\u00e4sten": 7352, "Stein@@": 7353, "dishes": 7354, "emergency": 7355, "CE": 7356, "westlichen": 7357, "charming": 7358, "eyes": 7359, "manager": 7360, "2.": 7361, "cutting": 7362, "cheap": 7363, "ky": 7364, "launch": 7365, "zuerst": 7366, "confirm": 7367, "eigenes": 7368, "komm@@": 7369, "Halb@@": 7370, "Ziffer": 7371, "weist": 7372, "ruhigen": 7373, "aria": 7374, "schrift": 7375, "ausschu\u00df": 7376, "behalten": 7377, "derartige": 7378, "unk@@": 7379, "Gleichgewicht": 7380, "drawing": 7381, "info": 7382, "ING": 7383, "bedroom": 7384, "karten": 7385, "Kann": 7386, "maintained": 7387, "reserve": 7388, "hinter@@": 7389, "wind": 7390, "ktions@@": 7391, "Israeli": 7392, "Luxembourg": 7393, "ended": 7394, "verk@@": 7395, "erh@@": 7396, "corruption": 7397, "dorf": 7398, "looks": 7399, "ick": 7400, "nahm": 7401, "echten": 7402, "funktionieren": 7403, "lebt": 7404, "parents": 7405, "91": 7406, "Gri@@": 7407, "zahl@@": 7408, "Problems": 7409, "remaining": 7410, "expensive": 7411, "Arab": 7412, "ultimately": 7413, "functioning": 7414, "top@@": 7415, "vollst\u00e4ndige": 7416, "imposed": 7417, "ners": 7418, "perform": 7419, "compatible": 7420, "erlauben": 7421, "creative": 7422, "eb@@": 7423, "mati@@": 7424, "Desk": 7425, "Konflikt": 7426, "Standard@@": 7427, "ices": 7428, "log@@": 7429, "submit": 7430, "benen": 7431, "counter": 7432, "dritte": 7433, "lets": 7434, "Kra@@": 7435, "bridge": 7436, "verursacht": 7437, "hall": 7438, "Prinzipien": 7439, "Take": 7440, "anc@@": 7441, "impression": 7442, "ierende": 7443, "universal": 7444, "inte@@": 7445, "leaving": 7446, "ok": 7447, "alist": 7448, "rup@@": 7449, "ausgesetzt": 7450, "declaration": 7451, "erenden": 7452, "oo@@": 7453, "Projekten": 7454, "ate-01": 7455, "connections": 7456, "opp@@": 7457, "04@@": 7458, "pollution": 7459, "zig": 7460, "zug\u00e4nglich": 7461, "citizen": 7462, "ef@@": 7463, "Politiken": 7464, "nehmer": 7465, "bli@@": 7466, "fei@@": 7467, "kostet": 7468, "trees": 7469, "ani": 7470, "hundreds": 7471, "News": 7472, "Verbot": 7473, "Ausnahme": 7474, "Transport@@": 7475, "Vorschlags": 7476, "electricity": 7477, "mark@@": 7478, "etz@@": 7479, "kor@@": 7480, "offices": 7481, "Verkauf": 7482, "marks": 7483, "Fel@@": 7484, "Pact": 7485, "vieler": 7486, "Munich": 7487, "preis": 7488, "FA@@": 7489, "statistics": 7490, "taste": 7491, "Techn@@": 7492, "mess@@": 7493, "Partnern": 7494, "Immobilien@@": 7495, "Non": 7496, "Stimm@@": 7497, "WC": 7498, "actively": 7499, "sucht": 7500, "Wander@@": 7501, "einfachen": 7502, "vast": 7503, "ham": 7504, "Such@@": 7505, "couple": 7506, "somewhat": 7507, "tures": 7508, "mt": 7509, "committees": 7510, "liste": 7511, "reserves": 7512, "visa": 7513, "temperature": 7514, "lic@@": 7515, "Amendments": 7516, "Programmen": 7517, "tenen": 7518, "Drogen@@": 7519, "boot": 7520, "characteristics": 7521, "Beratung": 7522, "abroad": 7523, "tend": 7524, "los@@": 7525, "hi": 7526, "carbon": 7527, "K\u00fcste": 7528, "impressive": 7529, "mi": 7530, "Institution": 7531, "Marketing": 7532, "tage": 7533, "Book": 7534, "teilt": 7535, "ud@@": 7536, "begr\u00fc\u00dft": 7537, "sar@@": 7538, "Abschnitt": 7539, "fein@@": 7540, "vorlegen": 7541, "boat": 7542, "bedeut@@": 7543, "father": 7544, "TA": 7545, "licherweise": 7546, "schnelle": 7547, "Austausch": 7548, "Fort@@": 7549, "enzen": 7550, "Lang@@": 7551, "betr\u00e4gt": 7552, "bild": 7553, "deals": 7554, "conducted": 7555, "signs": 7556, "visible": 7557, "erh\u00e4ltlich": 7558, "ex": 7559, "exp@@": 7560, "li": 7561, "\u043e@@": 7562, "Taiwan": 7563, "ita": 7564, "reject": 7565, "weisung": 7566, "ktive": 7567, "nit@@": 7568, "minorities": 7569, "spo@@": 7570, "dir": 7571, "kers": 7572, "Winter@@": 7573, "delighted": 7574, "hit": 7575, "iting": 7576, "Putin": 7577, "RI@@": 7578, "Dem": 7579, "answers": 7580, "gepr\u00fcft": 7581, "fr\u00fcheren": 7582, "Procedure": 7583, "cen@@": 7584, "entwurf": 7585, "best\u00e4tigen": 7586, "Back@@": 7587, "Verteidigung": 7588, "Werk": 7589, "Japanese": 7590, "zweifel@@": 7591, "AG@@": 7592, "bilateral": 7593, "strict": 7594, "11.": 7595, "aries": 7596, "Pop@@": 7597, "dit": 7598, "erneu@@": 7599, "Nutz@@": 7600, "bereit@@": 7601, "ping": 7602, "sicher@@": 7603, "vit@@": 7604, "Polish": 7605, "neuesten": 7606, "maschinen": 7607, "phrase": 7608, "Ma\u00df": 7609, "Ph@@": 7610, "tw@@": 7611, "legte": 7612, "durchf\u00fchren": 7613, "password": 7614, "Applause": 7615, "demonstrate": 7616, "mul@@": 7617, "Element": 7618, "dischen": 7619, "h\u00e4n@@": 7620, "residence": 7621, "tritt": 7622, "weiten": 7623, "Kamera": 7624, "Mac": 7625, "verleihen": 7626, "anlage": 7627, "cy": 7628, "divided": 7629, "east": 7630, "Use": 7631, "Over": 7632, "ura": 7633, "crimes": 7634, "ungssystem": 7635, "erweitert": 7636, "ug@@": 7637, "Kosten@@": 7638, "Maastricht": 7639, "Roman": 7640, "focused": 7641, "Bemerkungen": 7642, "zieht": 7643, "flat": 7644, "noted": 7645, "\u00f6ffentlich": 7646, "fi": 7647, "Revolution": 7648, "demanding": 7649, "denden": 7650, "geltenden": 7651, "gr\u00fcn@@": 7652, "rechtliche": 7653, "Gerichtshof": 7654, "MB": 7655, "ehr@@": 7656, "raw": 7657, "sexual": 7658, "Under": 7659, "earth": 7660, "Tisch": 7661, "entdecken": 7662, "ertes": 7663, "journey": 7664, "Faktoren": 7665, "investors": 7666, "wasser": 7667, "Arbeitsmarkt": 7668, "watch": 7669, "beschr\u00e4nkt": 7670, "igh@@": 7671, "werten": 7672, "Gespr\u00e4che": 7673, "marquis": 7674, "sole": 7675, "Boden": 7676, "Einwanderung": 7677, "demonstrated": 7678, "proud": 7679, "acc@@": 7680, "Question": 7681, "fach@@": 7682, "Handeln": 7683, "ero": 7684, "leisure": 7685, "cli@@": 7686, "Washington": 7687, "ausgesprochen": 7688, "verehrte": 7689, "vorschriften": 7690, "hardware": 7691, "intellectual": 7692, "wunder@@": 7693, "Zentralbank": 7694, "gearbeitet": 7695, "Tour@@": 7696, "mix": 7697, "spon@@": 7698, "ferner": 7699, "Funds": 7700, "Fri@@": 7701, "View": 7702, "Mobilit\u00e4t": 7703, "Portuguese": 7704, "h\u00f6chsten": 7705, "spoken": 7706, "cing": 7707, "sichere": 7708, "EG@@": 7709, "adopting": 7710, "displayed": 7711, "Bucht": 7712, "Gebrauch": 7713, "credibility": 7714, "sprache": 7715, "Ausf\u00fchrung": 7716, "atoren": 7717, "elt": 7718, "geren": 7719, "Hostels": 7720, "blue": 7721, "determination": 7722, "organisiert": 7723, "ziert": 7724, "chinesischen": 7725, "alised": 7726, "conditioning": 7727, "eins": 7728, "starten": 7729, "stor@@": 7730, "Very": 7731, "follows": 7732, "maintaining": 7733, "ration": 7734, "Konsens": 7735, "Marktes": 7736, "ology": 7737, "Mikro@@": 7738, "Programm@@": 7739, "entstanden": 7740, "verringern": 7741, "schie@@": 7742, "Ki@@": 7743, "MA": 7744, "einheitlichen": 7745, "grow": 7746, "regularly": 7747, "Angst": 7748, "George": 7749, "chemical": 7750, "constitutional": 7751, "haf@@": 7752, "transition": 7753, "F\u00e4higkeiten": 7754, "hinzuf\u00fcgen": 7755, "j\u00e4hrigen": 7756, "h\u00f6her": 7757, "nation@@": 7758, "gens": 7759, "SE": 7760, "faster": 7761, "kurze": 7762, "subsidiarity": 7763, "mitten": 7764, "Brazil": 7765, "Gesellschaften": 7766, "concluded": 7767, "erleichtern": 7768, "sodass": 7769, "jahr": 7770, "Sorgen": 7771, "entertainment": 7772, "immigrants": 7773, "Zielen": 7774, "schrei@@": 7775, "tackle": 7776, "Life": 7777, "cal": 7778, "Gre@@": 7779, "Norden": 7780, "Fenster": 7781, "AV@@": 7782, "Leit@@": 7783, "Atom@@": 7784, "Schwerpunkt": 7785, "rein@@": 7786, "Bildungs@@": 7787, "l\u00e4n@@": 7788, "messages": 7789, "Anbieter": 7790, "Inst@@": 7791, "Tourismus": 7792, "Vorgehen": 7793, "Beitr\u00e4ge": 7794, "Wi": 7795, "F\u00f6rder@@": 7796, "solange": 7797, "aktiven": 7798, "involves": 7799, "bek\u00e4mpfung": 7800, "noise": 7801, "st\u00e4@@": 7802, "Hohen": 7803, "Robert": 7804, "Netz": 7805, "speaker": 7806, "SV": 7807, "furniture": 7808, "finished": 7809, "gran@@": 7810, "st\u00e4nde": 7811, "Their": 7812, "definiert": 7813, "produziert": 7814, "Update": 7815, "globalisation": 7816, "Mand@@": 7817, "ass": 7818, "motor": 7819, "tre": 7820, "Verbindungen": 7821, "Wird": 7822, "outdoor": 7823, "leiten": 7824, "satisfied": 7825, "verschiedener": 7826, "vertre@@": 7827, "dining": 7828, "fiz@@": 7829, "ick@@": 7830, "Alternative": 7831, "Besorgnis": 7832, "aming": 7833, "bem\u00fchen": 7834, "verhindert": 7835, "nissen": 7836, "72": 7837, "Websites": 7838, "Signal": 7839, "zing": 7840, "ization": 7841, "Zentral@@": 7842, "schicken": 7843, "parks": 7844, "Given": 7845, "chi@@": 7846, "\u00e4u\u00dfern": 7847, "Nachrichten": 7848, "Power": 7849, "arm@@": 7850, "heritage": 7851, "\u00fcbernimmt": 7852, "Deswegen": 7853, "respected": 7854, "legitimate": 7855, "roads": 7856, "Soviet": 7857, "died": 7858, "m\u00e4@@": 7859, "68": 7860, "Gestaltung": 7861, "passiert": 7862, "ute": 7863, "vo": 7864, "sions@@": 7865, "unm\u00f6glich": 7866, "zunehmen": 7867, "back@@": 7868, "gehende": 7869, "license": 7870, "Kr@@": 7871, "taxation": 7872, "Garantie": 7873, "betra@@": 7874, "indicated": 7875, "wollten": 7876, "Schi@@": 7877, "entlang": 7878, "organized": 7879, "spiel@@": 7880, "Zwischen@@": 7881, "eth@@": 7882, "sk": 7883, "od": 7884, "t\u00e4t": 7885, "zt": 7886, "Buch@@": 7887, "sec@@": 7888, "wann": 7889, "Structural": 7890, "Copenhagen": 7891, "cold": 7892, "fee": 7893, "feed": 7894, "percent": 7895, "pieces": 7896, "ska": 7897, "Umgang": 7898, "aufnehmen": 7899, "beziehungen": 7900, "sch\u00f6nsten": 7901, "AB@@": 7902, "Maschinen": 7903, "dende": 7904, "Oper@@": 7905, "ausgeschlossen": 7906, "diert": 7907, "Fernseh@@": 7908, "ischem": 7909, "Beziehung": 7910, "declared": 7911, "Gaza": 7912, "St": 7913, "contacts": 7914, "Perhaps": 7915, "lte": 7916, "Canada": 7917, "dinner": 7918, "newly": 7919, "Kopf": 7920, "fehlt": 7921, "have-org-role-91": 7922, "iens": 7923, "sprach": 7924, "letztlich": 7925, "pass@@": 7926, "yn@@": 7927, "Gol@@": 7928, "firms": 7929, "pon@@": 7930, "competent": 7931, "constitution": 7932, "druck": 7933, "gezwungen": 7934, "oring": 7935, "stabil@@": 7936, "verurteilt": 7937, "Top": 7938, "destruction": 7939, "familiar": 7940, "fied": 7941, "wachsen": 7942, "grant": 7943, "meant": 7944, "ongoing": 7945, "gungs@@": 7946, "Stra\u00dfen": 7947, "Wien": 7948, "careful": 7949, "spartner": 7950, "Vice": 7951, "ffen": 7952, "cable": 7953, "Em@@": 7954, "Kauf@@": 7955, "Risiko@@": 7956, "aussprechen": 7957, "einig": 7958, "definitely": 7959, "reported": 7960, "stronger": 7961, "vel": 7962, "eastern": 7963, "plenary": 7964, "Werbung": 7965, "lis@@": 7966, "Baltic": 7967, "moral": 7968, "sle@@": 7969, "Fischer": 7970, "lists": 7971, "HTML": 7972, "Black": 7973, "Zusatz@@": 7974, "Eltern": 7975, "forma@@": 7976, "accompanied": 7977, "overcome": 7978, "Raum@@": 7979, "Wissenschaft": 7980, "Hamas": 7981, "Poli@@": 7982, "hil@@": 7983, "load": 7984, "IC": 7985, "buchen": 7986, "schauen": 7987, "Facilities": 7988, "jenen": 7989, "bezahlen": 7990, "equ@@": 7991, "f\u00fc@@": 7992, "vie@@": 7993, "Sach@@": 7994, "Essen": 7995, "tested": 7996, "Radio": 7997, "K\u00fcnstler": 7998, "School": 7999, "driver": 8000, "edge": 8001, "settings": 8002, "colour": 8003, "welchem": 8004, "Wohl@@": 8005, "Schlussfolgerungen": 8006, "dependent": 8007, "nieder@@": 8008, "Yes": 8009, "Kontrollen": 8010, "ular": 8011, "seat": 8012, "Mensch": 8013, "configuration": 8014, "Beschluss": 8015, "Ger\u00e4te": 8016, "brief": 8017, "54": 8018, "emerging": 8019, "scheme": 8020, "wn": 8021, "Optionen": 8022, "derer": 8023, "doesn": 8024, "ssysteme": 8025, "ez": 8026, "anz": 8027, "extrem": 8028, "gue": 8029, "kurzen": 8030, "vis": 8031, "Marina": 8032, "afternoon": 8033, "og@@": 8034, "tours": 8035, "nahmen": 8036, "92": 8037, "cri@@": 8038, "brau@@": 8039, "ore@@": 8040, "Blog": 8041, "kri@@": 8042, "occasions": 8043, "printing": 8044, "Jedes": 8045, "breiten": 8046, "Komponenten": 8047, "Schluss": 8048, "mus": 8049, "steuer@@": 8050, "nunmehr": 8051, "Ausgangspunkt": 8052, "Leistungs@@": 8053, "deficit": 8054, "tour@@": 8055, "Dort": 8056, "71": 8057, "assume": 8058, "op": 8059, "197@@": 8060, "02@@": 8061, "Protection": 8062, "Ze@@": 8063, "abgestimmt": 8064, "ite@@": 8065, "spot": 8066, "entscheidende": 8067, "Vorsitz": 8068, "icht@@": 8069, "owners": 8070, "Et@@": 8071, "Sektoren": 8072, "Va@@": 8073, "depending": 8074, "einrichtungen": 8075, "possibly": 8076, "voran@@": 8077, "Untersuchungen": 8078, "rechts@@": 8079, "Fron@@": 8080, "Islam": 8081, "Tun@@": 8082, "showing": 8083, "frequently": 8084, "heutige": 8085, "assets": 8086, "bedrooms": 8087, "inclusion": 8088, "Asien": 8089, "100@@": 8090, "Ed@@": 8091, "Get": 8092, "alistischen": 8093, "strategischen": 8094, "encouraging": 8095, "prefer": 8096, "Rechtsgrundlage": 8097, "zusammenarbeiten": 8098, "AKP": 8099, "Des": 8100, "down@@": 8101, "leistungen": 8102, "\u00fcbrigens": 8103, "wir@@": 8104, "F\u00fc@@": 8105, "apart": 8106, "bound": 8107, "f\u00f6rdert": 8108, "Blu@@": 8109, "Erzeugnisse": 8110, "argument": 8111, "bestehende": 8112, "proposing": 8113, "tot@@": 8114, "\u00fcberzeugen": 8115, "maschine": 8116, "wirkt": 8117, "Thirdly": 8118, "ining": 8119, "C5": 8120, "Klasse": 8121, "gr\u00f6@@": 8122, "inflation": 8123, "Music": 8124, "pr\u00e4sentiert": 8125, "bottom": 8126, "collaboration": 8127, "gew\u00e4hrt": 8128, "musste": 8129, "russischen": 8130, "ands": 8131, "contrast": 8132, "Video@@": 8133, "lasting": 8134, "sorgf\u00e4ltig": 8135, "formen": 8136, "jegliche": 8137, "ub@@": 8138, "ora": 8139, "zur@@": 8140, "erhebliche": 8141, "Identit\u00e4t": 8142, "smus": 8143, "Planung": 8144, "Son@@": 8145, "Ster@@": 8146, "aut@@": 8147, "Chancen": 8148, "Power@@": 8149, "ton@@": 8150, "Luft": 8151, "Meeres@@": 8152, "On@@": 8153, "Kin@@": 8154, "erinnert": 8155, "scheinen": 8156, "M\u00fcn@@": 8157, "Al": 8158, "Gran@@": 8159, "cycle": 8160, "dungs@@": 8161, "weg@@": 8162, "h\u00f6heren": 8163, "ausgef\u00fchrt": 8164, "government-organization": 8165, "m\u00f6@@": 8166, "depth": 8167, "Plus": 8168, "invite": 8169, "Aktion": 8170, "passenger": 8171, "run@@": 8172, "uten": 8173, "Belgium": 8174, "F\u00fchr@@": 8175, "decken": 8176, "profile": 8177, "\u00dcbersetzung": 8178, "holen": 8179, "updated": 8180, "stance": 8181, "verst\u00e4rken": 8182, "correctly": 8183, "joined": 8184, "decisive": 8185, "sou@@": 8186, "chtet": 8187, "resolved": 8188, "schaft@@": 8189, "bern": 8190, "proposes": 8191, "Cy@@": 8192, "Messe": 8193, "wiederholen": 8194, "Bemerkung": 8195, "namen": 8196, "\u00e9e": 8197, "Whether": 8198, "presents": 8199, "Cle@@": 8200, "drivers": 8201, "ktoren": 8202, "stil@@": 8203, "Wol@@": 8204, "cer@@": 8205, "Well": 8206, "eingereicht": 8207, "facility": 8208, "occur": 8209, "surroundings": 8210, "verdient": 8211, "wirtschaft@@": 8212, "award": 8213, "bestimmter": 8214, "ki@@": 8215, "regarded": 8216, "Lauf@@": 8217, "gebiete": 8218, "betreffend": 8219, "ver\u00e4ndern": 8220, "ental": 8221, "gan": 8222, "2.0": 8223, "provider": 8224, "IA@@": 8225, "appointed": 8226, "au\u00dferordentlich": 8227, "Exchange": 8228, "blog": 8229, "massage": 8230, "sugar": 8231, "atory": 8232, "desired": 8233, "properties": 8234, "tically": 8235, "Medien@@": 8236, "produkte": 8237, "s.com": 8238, "Zer@@": 8239, "bestimmen": 8240, "vers@@": 8241, "EA@@": 8242, "Veranstaltung": 8243, "beruht": 8244, "far@@": 8245, "erungen": 8246, "dert": 8247, "jahr@@": 8248, "ticket": 8249, "identified": 8250, "impose": 8251, "pping": 8252, "Beschl\u00fcsse": 8253, "Kapitel": 8254, "Len@@": 8255, "Morgen": 8256, "d\u00fcrfte": 8257, "starts": 8258, "classic": 8259, "PC@@": 8260, "Malta": 8261, "Client": 8262, "Verbreitung": 8263, "library": 8264, "channels": 8265, "B5": 8266, "Plattform": 8267, "transactions": 8268, "sign@@": 8269, "Kr\u00e4fte": 8270, "documentation": 8271, "aktivieren": 8272, "sight": 8273, "53": 8274, "Adobe": 8275, "ash@@": 8276, "partly": 8277, "rapidly": 8278, "ure@@": 8279, "3.": 8280, "clo@@": 8281, "ow": 8282, "drink": 8283, "examine": 8284, "\u00ed": 8285, "TE": 8286, "Mobile": 8287, "satisfaction": 8288, "derung": 8289, "erei": 8290, "isierung": 8291, "Ver\u00f6ffentlichung": 8292, "Bereitstellung": 8293, "read@@": 8294, "nahezu": 8295, "ator@@": 8296, "effektiv": 8297, "settlement": 8298, "bon@@": 8299, "resistance": 8300, "verantwortungs@@": 8301, "western": 8302, "Ambiente": 8303, "deckt": 8304, "3,@@": 8305, "Nos": 8306, "hom@@": 8307, "northern": 8308, "religion": 8309, "weather": 8310, "Insbesondere": 8311, "cuts": 8312, "val": 8313, "Dan@@": 8314, "foundation": 8315, "walls": 8316, "PL@@": 8317, "remote": 8318, "vorher": 8319, "Gesch\u00e4fte": 8320, "l\u00fc@@": 8321, "56": 8322, "interessante": 8323, "vulnerable": 8324, "Port": 8325, "Welcome": 8326, "tz": 8327, "Ausstellung": 8328, "EA": 8329, "Band": 8330, "interpretation": 8331, "Hungary": 8332, "behaviour": 8333, "publication": 8334, "west": 8335, "Hall": 8336, "ag": 8337, "rieben": 8338, "Fal@@": 8339, "beigetragen": 8340, "tlichen": 8341, "ACP": 8342, "H\u00fc@@": 8343, "widely": 8344, "besch\u00e4ftigen": 8345, "CS": 8346, "preparing": 8347, "FI@@": 8348, "heating": 8349, "l\u00f6sung": 8350, "pos@@": 8351, "renovated": 8352, "linie": 8353, "raten": 8354, "unverz\u00fcglich": 8355, "offen@@": 8356, "L\u00f6@@": 8357, "comm@@": 8358, "gie": 8359, "replace": 8360, "vorhandenen": 8361, "M\u00e4nnern": 8362, "gehenden": 8363, "metal": 8364, "owner": 8365, "stored": 8366, "anbelangt": 8367, "ish@@": 8368, "para": 8369, "shares": 8370, "reich@@": 8371, "standen": 8372, "transportation": 8373, "Bedrohung": 8374, "Dorf": 8375, "Selbstverst\u00e4ndlich": 8376, "TO": 8377, "Bestellung": 8378, "l\u00e4\u00dft": 8379, "sauna": 8380, "staat": 8381, "Organ@@": 8382, "Umfeld": 8383, "betrieben": 8384, "Ausstattung": 8385, "expert": 8386, "schlecht": 8387, "Fax": 8388, "expansion": 8389, "fy": 8390, "book@@": 8391, "ours": 8392, "Zivilgesellschaft": 8393, "hier@@": 8394, "ungef\u00e4hr": 8395, "Einstellungen": 8396, "Farbe": 8397, "reduzieren": 8398, "puts": 8399, "returned": 8400, "Macht@@": 8401, "Vorstellung": 8402, "Zi@@": 8403, "nevertheless": 8404, "oriented": 8405, "sel": 8406, "King": 8407, "nern": 8408, "adults": 8409, "linien": 8410, "versorgung": 8411, "Wohlstand": 8412, "r\u00e9@@": 8413, "IG@@": 8414, "entscheidender": 8415, "Alter": 8416, "Chinas": 8417, "Wein": 8418, "ici@@": 8419, "inhabitants": 8420, "performed": 8421, "sst": 8422, "tobacco": 8423, "var@@": 8424, "Englisch": 8425, "anwesend": 8426, "mie@@": 8427, "Auss@@": 8428, "oms": 8429, "usual": 8430, "Ausgabe": 8431, "Hafen": 8432, "Las": 8433, "Zwecke": 8434, "finanziert": 8435, "voluntary": 8436, "\u00b7": 8437, "derte": 8438, "f\u00fcllen": 8439, "dau@@": 8440, "maritime": 8441, "Katastrophe": 8442, "NO@@": 8443, "Partner@@": 8444, "britische": 8445, "jener": 8446, "mother": 8447, "Erholung": 8448, "erende": 8449, "laut": 8450, "Framework": 8451, "Mont@@": 8452, "beteiligen": 8453, "quarter": 8454, "Badezimmer": 8455, "Datenschutz@@": 8456, "formed": 8457, "schau@@": 8458, "CE@@": 8459, "cra@@": 8460, "arti@@": 8461, "umgeben": 8462, "verhalten": 8463, "personnel": 8464, "Thomas": 8465, "preis@@": 8466, "inner": 8467, "nam@@": 8468, "suffer": 8469, "Bahn@@": 8470, "date-entity": 8471, "educational": 8472, "eingehalten": 8473, "pur@@": 8474, "visited": 8475, "Glaubw\u00fcrdigkeit": 8476, "ack@@": 8477, "gestaltet": 8478, "hrt": 8479, "Award": 8480, "considering": 8481, "verkehr@@": 8482, "agen": 8483, "AU@@": 8484, "beraten": 8485, "ences": 8486, "lokale": 8487, "serviert": 8488, "Gr\u00fcndung": 8489, "Kollegin": 8490, "copyright": 8491, "iel@@": 8492, "Entwickl@@": 8493, "Sony": 8494, "b\u00fc@@": 8495, "liefert": 8496, "erie": 8497, "Asyl@@": 8498, "assure": 8499, "fl\u00fc@@": 8500, "kamen": 8501, "patent": 8502, "substance": 8503, "domin@@": 8504, "techniques": 8505, "Los": 8506, "mmer": 8507, "mostly": 8508, "tively": 8509, "59": 8510, "Staates": 8511, "corresponding": 8512, "Assembly": 8513, "army": 8514, "technik": 8515, "Schwer@@": 8516, "entsteht": 8517, "gla@@": 8518, "ET": 8519, "Studien": 8520, "arrive": 8521, "duties": 8522, "tation": 8523, "Kontext": 8524, "comparison": 8525, "containing": 8526, "distributed": 8527, "fantastic": 8528, "gin@@": 8529, "eignet": 8530, "ford": 8531, "Games": 8532, "castle": 8533, "modell": 8534, "einzigartige": 8535, "freedoms": 8536, "PRO@@": 8537, "Schu@@": 8538, "installieren": 8539, "rein": 8540, "Kontakt@@": 8541, "Krankheit": 8542, "Set": 8543, "h\u00e4ngen": 8544, "Aktiv@@": 8545, "Budget": 8546, "gal@@": 8547, "tigt": 8548, "Schlafzimmer": 8549, "pped": 8550, "WLAN": 8551, "lay": 8552, "elsewhere": 8553, "sien": 8554, "pun@@": 8555, "sern": 8556, "EX": 8557, "Konsequenzen": 8558, "heat": 8559, "sozialer": 8560, "syste@@": 8561, "absence": 8562, "angebot": 8563, "Description": 8564, "exports": 8565, "generated": 8566, "housing": 8567, "Gerichte": 8568, "Haftung": 8569, "Rein@@": 8570, "fashion": 8571, "grunds\u00e4tzlich": 8572, "applying": 8573, "gr\u00f6\u00dfer": 8574, "ssel@@": 8575, "angebracht": 8576, "\u00dcberlegungen": 8577, "abuse": 8578, "suppliers": 8579, "wahlen": 8580, "wonder": 8581, "festival": 8582, "r\u00f6@@": 8583, "einbezogen": 8584, "Without": 8585, "gold": 8586, "rely": 8587, "-of": 8588, "AL": 8589, "Mangel": 8590, "asi@@": 8591, "vorbereitet": 8592, "brechen": 8593, "employed": 8594, "66": 8595, "islands": 8596, "channel": 8597, "exciting": 8598, "wines": 8599, "Mexico": 8600, "courts": 8601, "sson": 8602, "excessive": 8603, "gewissen": 8604, "Selbst": 8605, "gen\u00fcgend": 8606, "Ansichten": 8607, "Noch": 8608, "component": 8609, "flights": 8610, "gek@@": 8611, "reiche": 8612, "w\u00e4r@@": 8613, "Gas@@": 8614, "verkaufen": 8615, "weite": 8616, "Waren@@": 8617, "ade@@": 8618, "p.m.": 8619, "serv@@": 8620, "vice": 8621, "Gew\u00e4hrleistung": 8622, "cken@@": 8623, "Newsletter": 8624, "proceed": 8625, "\u00c3": 8626, "arm": 8627, "irgend@@": 8628, "micro@@": 8629, "Browser": 8630, "Studenten": 8631, "meter": 8632, "Foto": 8633, "banking": 8634, "gebieten": 8635, "gesellschaften": 8636, "solely": 8637, "machte": 8638, "St\u00fcck": 8639, "kel": 8640, "script": 8641, "Edition": 8642, "saving": 8643, "V\u00f6lker@@": 8644, "Women": 8645, "d.h.": 8646, "dire@@": 8647, "suites": 8648, "Friday": 8649, "Bulgarien": 8650, "F\u00fchrungs@@": 8651, "Genehmigung": 8652, "ading": 8653, "sending": 8654, "Agriculture": 8655, "Hungarian": 8656, "angegebenen": 8657, "cent": 8658, "coun@@": 8659, "sharing": 8660, "AIDS": 8661, "ables": 8662, "providers": 8663, "ency": 8664, "Gewicht": 8665, "exception": 8666, "initi@@": 8667, "formal": 8668, "By@@": 8669, "harmonisation": 8670, "secret": 8671, "IV": 8672, "tau@@": 8673, "vorstellen": 8674, "Image": 8675, "Report": 8676, "d\u00e9@@": 8677, "oten": 8678, "decorated": 8679, "invest": 8680, "sil@@": 8681, "Sollte": 8682, "famili@@": 8683, "mobil@@": 8684, "representation": 8685, "zeichn@@": 8686, "aged": 8687, "valley": 8688, "Jede": 8689, "pursue": 8690, "farm": 8691, "manufacturer": 8692, "Wellness": 8693, "heben": 8694, "politically": 8695, "AS": 8696, "S.": 8697, "Sel@@": 8698, "solid": 8699, "youth": 8700, "Reduzierung": 8701, "rela@@": 8702, "Guests": 8703, "Zwei": 8704, "ktiven": 8705, "finanz@@": 8706, "nie@@": 8707, "Alles": 8708, "Entlastung": 8709, "department": 8710, "ersetzt": 8711, "milit\u00e4rischen": 8712, "VAT": 8713, "gemeinschaftlichen": 8714, "gut@@": 8715, "match": 8716, "prosperity": 8717, "Profi@@": 8718, "leb@@": 8719, "negotiating": 8720, "Legal": 8721, "erfolgreiche": 8722, "Ab": 8723, "Will": 8724, "organisieren": 8725, "samen": 8726, "ille": 8727, "plays": 8728, "Lau@@": 8729, "58": 8730, "career": 8731, "Ah@@": 8732, "Buchung": 8733, "balcony": 8734, "milk": 8735, "Northern": 8736, "wert@@": 8737, "ziele": 8738, "Ungarn": 8739, "functional": 8740, "updates": 8741, "Gl\u00fcck@@": 8742, "Besonders": 8743, "bereitgestellt": 8744, "enhance": 8745, "lien": 8746, "sicheren": 8747, "wiederholt": 8748, "relaxation": 8749, "age@@": 8750, "herrscht": 8751, "solches": 8752, "Pakete": 8753, "Page": 8754, "Prague": 8755, "Praktiken": 8756, "carrying": 8757, "verbringen": 8758, "Einkommen": 8759, "Network": 8760, "demo@@": 8761, "gele@@": 8762, "genannte": 8763, "Vorhaben": 8764, "Following": 8765, "Hinter@@": 8766, "Polizei": 8767, "Special": 8768, "ordinary": 8769, "Show": 8770, "bislang": 8771, "liegenden": 8772, "pp": 8773, "Rob@@": 8774, "einfacher": 8775, "gangs": 8776, "nicht@@": 8777, "Cer@@": 8778, "arguments": 8779, "complicated": 8780, "isation": 8781, "wen@@": 8782, "division": 8783, "SD@@": 8784, "lam@@": 8785, "Bewer@@": 8786, "THE": 8787, "ards": 8788, "sser": 8789, "terung": 8790, "Within": 8791, "bo": 8792, "k\u00fcnftige": 8793, "realistic": 8794, "Anti": 8795, "replaced": 8796, "analy@@": 8797, "imports": 8798, "ison": 8799, "tem@@": 8800, "Des@@": 8801, "Positionen": 8802, "bach": 8803, "ending": 8804, "ennen": 8805, "vorzulegen": 8806, "cr@@": 8807, "franz\u00f6sische": 8808, "sit@@": 8809, "Gegenstand": 8810, "Kli@@": 8811, "kg": 8812, "f\u00fchrten": 8813, "Auge": 8814, "Budapest": 8815, "formation": 8816, "wissenschaftliche": 8817, "extraordinary": 8818, "gerung": 8819, "Darum": 8820, "Poly@@": 8821, "justified": 8822, "ssp@@": 8823, "verteidigen": 8824, "gespeichert": 8825, "tr\u00e4@@": 8826, "12.@@": 8827, "Korruption": 8828, "Nachricht": 8829, "Para@@": 8830, "savings": 8831, "stem": 8832, "Digital": 8833, "Dusche": 8834, "New@@": 8835, "Webseiten": 8836, "Second": 8837, "Hil@@": 8838, "SS@@": 8839, "\u00ea@@": 8840, "Spezi@@": 8841, "fitness": 8842, "USS": 8843, "dr\u00fccken": 8844, "berei@@": 8845, "\u00e3o": 8846, "W\u00fcnsche": 8847, "cooperate": 8848, "fon@@": 8849, "Mark@@": 8850, "entr@@": 8851, "versichern": 8852, "Ol@@": 8853, "Stimmen": 8854, "getragen": 8855, "staat@@": 8856, "Versionen": 8857, "ald": 8858, "frame": 8859, "Auditors": 8860, "menschliche": 8861, "Notes": 8862, "EZB": 8863, "LE": 8864, "Einheit": 8865, "Phot@@": 8866, "letztendlich": 8867, "Tar@@": 8868, "Thursday": 8869, "unterstreichen": 8870, "farming": 8871, "mittleren": 8872, "count": 8873, "Gegend": 8874, "Mitarbeitern": 8875, "ble@@": 8876, "corner": 8877, "eite": 8878, "57": 8879, "Sommer@@": 8880, "awarded": 8881, "ix": 8882, "pr\u00e4sentieren": 8883, "Egypt": 8884, "illegalen": 8885, "unge@@": 8886, "Single": 8887, "explore": 8888, "hair": 8889, "referendum": 8890, "soci@@": 8891, "zes": 8892, "18.": 8893, "Bl@@": 8894, "Kommissions@@": 8895, "allocated": 8896, "stylish": 8897, "kapit@@": 8898, "recorded": 8899, "Canon": 8900, "aging": 8901, "owned": 8902, "tickets": 8903, "BR@@": 8904, "Old": 8905, "doors": 8906, "explo@@": 8907, "nights": 8908, "offiziellen": 8909, "Verletzung": 8910, "raums": 8911, "thousand": 8912, "--@@": 8913, "Sicherung": 8914, "institutionelle": 8915, "meist": 8916, "Prozesses": 8917, "faith": 8918, "gefallen": 8919, "laufenden": 8920, "wohnen": 8921, "inv@@": 8922, "ichten": 8923, "Kilometer": 8924, "ologischen": 8925, "theme": 8926, "bereichen": 8927, "cosy": 8928, "investieren": 8929, "vorgeschlagene": 8930, "Erstellung": 8931, "Zust\u00e4ndigkeit": 8932, "pper": 8933, "Socialist": 8934, "trend": 8935, "pl\u00e4tze": 8936, "Gefahren": 8937, "Gerichts@@": 8938, "PSE": 8939, "stolz": 8940, "Sha@@": 8941, "d\u00e4@@": 8942, "proven": 8943, "\u0441@@": 8944, "Americans": 8945, "significance": 8946, "united": 8947, "hundred": 8948, "Fein@@": 8949, "Ferien@@": 8950, "Garden": 8951, "consent": 8952, "elektronischen": 8953, "sheet": 8954, "professionals": 8955, "university": 8956, "Cri@@": 8957, "battle": 8958, "fl\u00e4che": 8959, "lie\u00df": 8960, "Mission": 8961, "Organe": 8962, "Sit@@": 8963, "niveau": 8964, "trial": 8965, "\u00f3": 8966, "Gerechtigkeit": 8967, "IB@@": 8968, "Werbe@@": 8969, "Zone": 8970, "pic@@": 8971, "Stability": 8972, "Systemen": 8973, "gestellten": 8974, "necessarily": 8975, "Dat@@": 8976, "Fl\u00fc@@": 8977, "aly@@": 8978, "concepts": 8979, "dollar": 8980, "Anschluss": 8981, "Spar@@": 8982, "addresses": 8983, "selbst@@": 8984, "set@@": 8985, "\u00e4r": 8986, "abstimmen": 8987, "difficulty": 8988, "Schulen": 8989, "constitute": 8990, "graphic": 8991, "geboren": 8992, "gro\u00dfem": 8993, "rising": 8994, "67": 8995, "Kab@@": 8996, "enabled": 8997, "Rund@@": 8998, "Wirtschaftswachstum": 8999, "freundliche": 9000, "supplies": 9001, "-04": 9002, "Cl@@": 9003, "greatly": 9004, "individuellen": 9005, "kraft@@": 9006, "fulfil": 9007, "Friedens@@": 9008, "Puerto": 9009, "Sto@@": 9010, "Strasbourg": 9011, "nde": 9012, "rac@@": 9013, "safeguard": 9014, "gkeit": 9015, "lounge": 9016, "Geb@@": 9017, "ensures": 9018, "netz@@": 9019, "zuk\u00fcnftigen": 9020, "PH@@": 9021, "cash": 9022, "deut@@": 9023, "ger\u00e4te": 9024, "88": 9025, "U.S.": 9026, "dische": 9027, "effizient": 9028, "studio": 9029, "bene": 9030, "Pr@@": 9031, "aux": 9032, "dat@@": 9033, "kr\u00e4fte": 9034, "schwer@@": 9035, "vorgesehenen": 9036, "\u00fcberpr\u00fcft": 9037, "Stoffe": 9038, "Vel@@": 9039, "nehm@@": 9040, "succeed": 9041, "Nachbar@@": 9042, "paying": 9043, "accurate": 9044, "slow": 9045, "verkauft": 9046, "Brenn@@": 9047, "filter": 9048, "Freiz\u00fcgigkeit": 9049, "resul@@": 9050, "depend": 9051, "einzusetzen": 9052, "packaging": 9053, "forthcoming": 9054, "wirtschaftlich": 9055, "portal": 9056, "sy": 9057, "Rest": 9058, "n't": 9059, "Erf\u00fcllung": 9060, "Firmen@@": 9061, "SC@@": 9062, "j\u00fcn@@": 9063, "M\u00fcnchen": 9064, "Sollten": 9065, "uch": 9066, "visiting": 9067, "wirk@@": 9068, "Binnenmarktes": 9069, "Brasilien": 9070, "ico": 9071, "zust\u00e4ndig": 9072, "Hen@@": 9073, "gio": 9074, "labelling": 9075, "Lebensmittel": 9076, "Gut@@": 9077, "ities": 9078, "itation": 9079, "DO@@": 9080, "Kurz@@": 9081, "erfolgreichen": 9082, "forests": 9083, "Preisen": 9084, "attempts": 9085, "entschlossen": 9086, "legally": 9087, "specified": 9088, "77": 9089, "gy": 9090, "straight": 9091, "tourists": 9092, "Haushaltsplan": 9093, "freut": 9094, "gardens": 9095, "societies": 9096, "Kroatien": 9097, "interior": 9098, "m\u00e4rkte": 9099, "proceedings": 9100, "g\u00e4nge": 9101, "ishing": 9102, "EP": 9103, "enabling": 9104, "suggestions": 9105, "Islamic": 9106, "Bol@@": 9107, "Tibet": 9108, "Nah@@": 9109, "leistung": 9110, "Ablehnung": 9111, "druck@@": 9112, "gewonnen": 9113, "individuelle": 9114, "vertrau@@": 9115, "Abschaffung": 9116, "Geor@@": 9117, "Miss@@": 9118, "dich": 9119, "kol@@": 9120, "obliged": 9121, "ARG3": 9122, "Mrd.": 9123, "River": 9124, "Ware": 9125, "fication": 9126, "wechsel@@": 9127, "Energien": 9128, "subjects": 9129, "Mau@@": 9130, "allzu": 9131, "langfristige": 9132, "teilung": 9133, "h\u00e4user": 9134, "Secretary": 9135, "konfrontiert": 9136, "spoke": 9137, "towns": 9138, "directory": 9139, "Extre@@": 9140, "aner": 9141, "isch@@": 9142, "wirksame": 9143, "milit\u00e4rische": 9144, ",5": 9145, "routes": 9146, "s\u00fc@@": 9147, "suggested": 9148, "Dru@@": 9149, "Ele@@": 9150, "Holiday": 9151, "Mut": 9152, "artist": 9153, "disabled": 9154, "Aktionsplan": 9155, "Kauf": 9156, "Volksgesundheit": 9157, "Or": 9158, "Sonne": 9159, "hervor": 9160, "mus@@": 9161, "Vorausschau": 9162, "vacation": 9163, "Church": 9164, "bot@@": 9165, "revision": 9166, "unterzeichnet": 9167, "Serbia": 9168, "module": 9169, "Phili@@": 9170, "legiti@@": 9171, "supervision": 9172, "Res@@": 9173, "bild@@": 9174, "orte": 9175, "BC": 9176, "Bla@@": 9177, "EB@@": 9178, "ungsverfahren": 9179, "armed": 9180, "ds@@": 9181, "AP@@": 9182, "Gleichstellung": 9183, "Hilfs@@": 9184, "Widerspruch": 9185, "cep@@": 9186, "counter@@": 9187, "introducing": 9188, "see@@": 9189, "\u00e4ch@@": 9190, "\u00fa@@": 9191, "Gr\u00fcnen": 9192, "lessons": 9193, "steuern": 9194, "Analy@@": 9195, "Dauer": 9196, "disk": 9197, "Pot@@": 9198, "gsten": 9199, "patient": 9200, "Regierungschefs": 9201, "erreichbar": 9202, "griffen": 9203, "sla@@": 9204, "Point": 9205, "firmly": 9206, "jo": 9207, "slightly": 9208, "89": 9209, "Kir@@": 9210, "internen": 9211, "Play@@": 9212, "beantworten": 9213, "ests": 9214, "Congress": 9215, "erlebt": 9216, "fies": 9217, "exit": 9218, "verbinden": 9219, "Fun@@": 9220, "Schl\u00fcssel": 9221, "beschrieben": 9222, "directed": 9223, "holds": 9224, "k\u00fcrz@@": 9225, "nen@@": 9226, "n\u00fctz@@": 9227, "dignity": 9228, "lierten": 9229, "weak": 9230, "Mul@@": 9231, "Salzburg": 9232, "richtlinie": 9233, "art@@": 9234, "reserv@@": 9235, "werken": 9236, "Lounge": 9237, "preventing": 9238, "sought": 9239, "traditions": 9240, "Bou@@": 9241, "Wind@@": 9242, "Direkt@@": 9243, "W\u00fcr@@": 9244, "grenzen": 9245, "82": 9246, "Ass@@": 9247, "ausgerichtet": 9248, "dium": 9249, "plenty": 9250, "turning": 9251, "gestattet": 9252, "ped": 9253, "regul@@": 9254, "rig@@": 9255, "spreche": 9256, "\u00a9": 9257, "Betrag": 9258, "Tip": 9259, "angesehen": 9260, "punkte": 9261, "\u00a7": 9262, "waffen": 9263, "Atlantic": 9264, "Il@@": 9265, "Kurs": 9266, "Schwe@@": 9267, "Freunden": 9268, "lift": 9269, "realise": 9270, "weitgehend": 9271, "Belgien": 9272, "Perspektive": 9273, "Rap@@": 9274, "Redner": 9275, "barriers": 9276, "Eisenbahn@@": 9277, "disasters": 9278, "k\u00f6rper@@": 9279, "schl\u00e4ge": 9280, "zw@@": 9281, "Befugnisse": 9282, "Produ@@": 9283, "Wirk@@": 9284, "vermitteln": 9285, "betreiben": 9286, "oll": 9287, "Meines": 9288, "Vietnam": 9289, "geboten": 9290, "motiv@@": 9291, "Training": 9292, "pflich@@": 9293, "receiving": 9294, "Commissioners": 9295, "EM": 9296, "Situationen": 9297, "behaupten": 9298, "inklusive": 9299, "welcomed": 9300, "Ce@@": 9301, "T\u00e4tigkeiten": 9302, "bili@@": 9303, "dition": 9304, "scene": 9305, "surely": 9306, "gelassen": 9307, "windows": 9308, "Anlass": 9309, "beings": 9310, "u.a.": 9311, "Nord": 9312, "Sig@@": 9313, "import": 9314, "s-": 9315, "sphere": 9316, "sprach@@": 9317, "Beh@@": 9318, "Volkes": 9319, "strategische": 9320, "supplier": 9321, "indi@@": 9322, "Fle@@": 9323, "programming": 9324, "quar@@": 9325, "sex@@": 9326, "Neue": 9327, "reservations": 9328, "anschlie\u00dfen": 9329, "supposed": 9330, "\u00fch@@": 9331, "Verlust": 9332, "ger\u00e4t": 9333, "Having": 9334, "ve-01": 9335, "w\u00e4@@": 9336, "Gran": 9337, "Prozesse": 9338, "Rom": 9339, "Marke": 9340, "minist@@": 9341, "Rom@@": 9342, "exclusion": 9343, "resource": 9344, "vil@@": 9345, "sustainability": 9346, "Ty@@": 9347, "gespielt": 9348, "input": 9349, "rou@@": 9350, "steckt": 9351, "verf\u00fcgbaren": 9352, "wohl@@": 9353, "cat@@": 9354, "hervorgehoben": 9355, "Gericht": 9356, "bestimmungen": 9357, "su": 9358, "winning": 9359, "Kontakte": 9360, "exploitation": 9361, "gained": 9362, "theory": 9363, "regu@@": 9364, "vorher@@": 9365, "Dem@@": 9366, "f\u00fcgt": 9367, "periods": 9368, "topics": 9369, "drop": 9370, "endorse": 9371, "Main": 9372, "entrance": 9373, "stocks": 9374, "Mot@@": 9375, "remarks": 9376, "Verhandlungs@@": 9377, "coordinated": 9378, "perfekt": 9379, "vieles": 9380, "Ker@@": 9381, "Like": 9382, "Sicherheit@@": 9383, "centuries": 9384, "ersetzen": 9385, "unabh\u00e4ngigen": 9386, "enger": 9387, "vertra@@": 9388, "Emp@@": 9389, "mitteilen": 9390, "yed": 9391, "Je": 9392, "Neben@@": 9393, "investigation": 9394, "\u00e4nde": 9395, "Wikitravel": 9396, "ika": 9397, "planet": 9398, "\u00e4hnliche": 9399, "Bade@@": 9400, "Coun@@": 9401, "Deutschen": 9402, "St\u00e4dten": 9403, "arise": 9404, "obstacles": 9405, "philosophy": 9406, "integriert": 9407, "aw@@": 9408, "zun@@": 9409, "Balkan": 9410, "schw@@": 9411, "zier@@": 9412, "bten": 9413, "chan@@": 9414, "refers": 9415, "Eurozone": 9416, "sovereignty": 9417, "78": 9418, "Balkans": 9419, "ernsthaft": 9420, "violations": 9421, "Good": 9422, "Kommunikations@@": 9423, "Oder": 9424, "Sin@@": 9425, "Werke": 9426, "mitglieder": 9427, "Finland": 9428, "Hau@@": 9429, "festzulegen": 9430, "virtual": 9431, "Fl\u00fcchtlinge": 9432, "Verfassungs@@": 9433, "permitted": 9434, "ECB": 9435, "Press": 9436, "beobachten": 9437, "Distribution": 9438, "Roman@@": 9439, "Software@@": 9440, "ello": 9441, "les@@": 9442, "Anstieg": 9443, "XP": 9444, "cho@@": 9445, "ished": 9446, "parti@@": 9447, "ST": 9448, "cast": 9449, "jetzigen": 9450, "leben@@": 9451, "spectacular": 9452, "tech": 9453, "bedeutende": 9454, "notes": 9455, "Stat@@": 9456, "System@@": 9457, "auftreten": 9458, "nachdr\u00fccklich": 9459, "ron": 9460, "treat": 9461, "Pl\u00e4ne": 9462, "stin@@": 9463, "beln": 9464, "generate": 9465, "wechsel": 9466, "mei@@": 9467, "parliament": 9468, "undoubtedly": 9469, "Gerade": 9470, "Nachbarn": 9471, "ausgegeben": 9472, "konzentriert": 9473, "Eigentum": 9474, "Ess@@": 9475, "Pon@@": 9476, "Tru@@": 9477, "dankbar": 9478, "penalty": 9479, "adapt": 9480, "kenn@@": 9481, "miles": 9482, "iner": 9483, "invited": 9484, "Dre@@": 9485, "Handels": 9486, "SAP": 9487, "Sauna": 9488, "suffered": 9489, "wege": 9490, "Schiffe": 9491, "d-01": 9492, "matischen": 9493, "mme": 9494, "Park@@": 9495, "Viertel": 9496, "magnificent": 9497, "\u00e8s": 9498, "Trotzdem": 9499, "believes": 9500, "bte": 9501, "shipping": 9502, "vorliegende": 9503, "\u00dcbergangs@@": 9504, "Sho@@": 9505, "4.": 9506, "rock": 9507, "abgesch@@": 9508, "Sitz@@": 9509, "Wo": 9510, "logy": 9511, "welcomes": 9512, "hardly": 9513, "Kulturen": 9514, "Zus\u00e4tzlich": 9515, "27@@": 9516, "aufs": 9517, "label": 9518, "offene": 9519, "Vorlage": 9520, "electric": 9521, "kontrolle": 9522, "tis@@": 9523, "Quality": 9524, "restricted": 9525, "tables": 9526, "Content": 9527, "Grad": 9528, "Professor": 9529, "contributed": 9530, "none": 9531, "Wachstums@@": 9532, "Wir@@": 9533, "everyday": 9534, "erzeugt": 9535, "everybody": 9536, "prime": 9537, "steten": 9538, "verteilt": 9539, "EX@@": 9540, "Ep@@": 9541, "dal": 9542, "eig@@": 9543, "kompet@@": 9544, "Wohnung": 9545, "Rechtsstaatlichkeit": 9546, "Eli@@": 9547, "kurs": 9548, "ely": 9549, "hoffentlich": 9550, "manche": 9551, "ological": 9552, "st\u00e4nden": 9553, "enterprise": 9554, "fahrer": 9555, "gew\u00e4hren": 9556, "rental": 9557, "zuk\u00fcnftige": 9558, "0.000": 9559, "Konto": 9560, "deswegen": 9561, "phones": 9562, "termin@@": 9563, "BMW": 9564, "Denk@@": 9565, "traditionelle": 9566, "approve": 9567, "Der@@": 9568, "Gemeinsame": 9569, "bekannte": 9570, "filled": 9571, "mental": 9572, "whereas": 9573, "Kriminalit\u00e4t": 9574, "Tool": 9575, "15.": 9576, "stages": 9577, "62": 9578, "einheitliche": 9579, "vir@@": 9580, "Don": 9581, "clause": 9582, "eventually": 9583, "productive": 9584, "LA": 9585, "til@@": 9586, "Cur@@": 9587, "Men\u00fc": 9588, "M\u00f6@@": 9589, "bi": 9590, "gischen": 9591, "ktiv@@": 9592, "\u00e2@@": 9593, "dien@@": 9594, "finish": 9595, "gebeten": 9596, "lab@@": 9597, "Berichten": 9598, "\u00e4hnlich": 9599, "erzeu@@": 9600, "Bir@@": 9601, "Salz@@": 9602, "Theater": 9603, "behoben": 9604, "essen": 9605, "fassung": 9606, "lten": 9607, "5.": 9608, "fers": 9609, "j\u00e4hrige": 9610, "spolitischen": 9611, "Balkon": 9612, "Mini@@": 9613, "Pr\u00fcf@@": 9614, "entwickelte": 9615, "reduziert": 9616, "Smoking": 9617, "stro@@": 9618, "selling": 9619, "Master": 9620, "Termin@@": 9621, "bisherigen": 9622, "\u00dcbernachtung": 9623, "94": 9624, "Sun@@": 9625, "humanit\u00e4re": 9626, "twenty": 9627, "zieren": 9628, "zeichnen": 9629, "Asian": 9630, "vin@@": 9631, "Rechten": 9632, "Tan@@": 9633, "leaves": 9634, "dol@@": 9635, "tos": 9636, "vent@@": 9637, "Nacht@@": 9638, "deb@@": 9639, "\u00fcberein": 9640, "atten@@": 9641, "decade": 9642, "kal@@": 9643, "killed": 9644, "Stockholm": 9645, "tered": 9646, "verdienen": 9647, "\u00e8re": 9648, "Monday": 9649, "mussten": 9650, "regardless": 9651, "richtung": 9652, "f\u00e4higen": 9653, "sprachen": 9654, "Ausma\u00df": 9655, "Beteiligten": 9656, "seg@@": 9657, "ARG2-of": 9658, "Finanzkrise": 9659, "Sch\u00f6n@@": 9660, "enthaltenen": 9661, "langfristig": 9662, "ungspolitik": 9663, "gedacht": 9664, "verst\u00e4ndlich": 9665, "effiziente": 9666, "gap": 9667, "ierenden": 9668, "richtet": 9669, "brin@@": 9670, "Politik@@": 9671, "Respekt": 9672, "explained": 9673, "konferenz": 9674, "prot@@": 9675, "AP": 9676, "ander@@": 9677, "praktische": 9678, "zentren": 9679, "a.": 9680, "renowned": 9681, "severe": 9682, "Playa": 9683, "Weiteren": 9684, "erfreut": 9685, "Does": 9686, "gendes": 9687, "Gemein@@": 9688, "fourth": 9689, "Tools": 9690, "m\u00e4chti@@": 9691, "wettbewerbs@@": 9692, "......": 9693, "festgelegten": 9694, "ray": 9695, "angeb@@": 9696, "nungs@@": 9697, "zuzu@@": 9698, "Amt": 9699, "Doha": 9700, "Freizeit@@": 9701, "Posi@@": 9702, "artistic": 9703, "assess": 9704, "hearing": 9705, "ungss@@": 9706, "M\u00e4rkten": 9707, "Aufsichts@@": 9708, "Lieferung": 9709, "Tat@@": 9710, "popul@@": 9711, "courage": 9712, "yl@@": 9713, "tief@@": 9714, "verbrau@@": 9715, "gerufen": 9716, "hard@@": 9717, "mol@@": 9718, "einzuf\u00fchren": 9719, "it\u00e4ts@@": 9720, "chter@@": 9721, "Lis@@": 9722, "Ver\u00e4nderung": 9723, "modules": 9724, "Year": 9725, "alise": 9726, "\u043d@@": 9727, "Charles": 9728, "Modelle": 9729, "annte": 9730, "duration": 9731, "strengthened": 9732, "Dire@@": 9733, "nes": 9734, "ong@@": 9735, "protocol": 9736, "urspr\u00fcnglich": 9737, "Besides": 9738, "Konflikte": 9739, "Space": 9740, "gebildet": 9741, "sparen": 9742, "weekend": 9743, "Audio": 9744, "Betra@@": 9745, "continuous": 9746, "hei\u00dfen": 9747, "roll": 9748, "t\u00e4glichen": 9749, "vollst\u00e4ndigen": 9750, "enhanced": 9751, "luxurious": 9752, "vessels": 9753, "Bern@@": 9754, "Guide": 9755, "hl@@": 9756, "Food": 9757, "bet": 9758, "lots": 9759, "unabh\u00e4ngige": 9760, "gemeinschaft": 9761, "ologische": 9762, "reflected": 9763, "beendet": 9764, "indicate": 9765, "imagine": 9766, "wahren": 9767, "ED": 9768, "ani@@": 9769, "teams": 9770, "beschr\u00e4nken": 9771, "chti@@": 9772, "erw\u00e4hnen": 9773, "liefer@@": 9774, "Ganz": 9775, "James": 9776, "kernel": 9777, "Vertrages": 9778, "restructuring": 9779, "description": 9780, "productivity": 9781, "fertig": 9782, "ira": 9783, "unterscheiden": 9784, "Massen@@": 9785, "Reserv@@": 9786, "glob@@": 9787, "Fahrzeuge": 9788, "NA@@": 9789, "undertaken": 9790, "\u00f6konomischen": 9791, "Feld": 9792, "losses": 9793, "te-01": 9794, "ull": 9795, "Mol@@": 9796, "losigkeit": 9797, "stands@@": 9798, "Berichterstatters": 9799, "album": 9800, "gelingt": 9801, "ham@@": 9802, "liberal": 9803, "movements": 9804, "Mittelmeer": 9805, "ge\u00e4u\u00dfert": 9806, "root": 9807, "Verk@@": 9808, "appropriations": 9809, "ased": 9810, "leit@@": 9811, "organisationen": 9812, "CHF": 9813, "Co": 9814, "Gesam@@": 9815, "Staatsan@@": 9816, "steh@@": 9817, "Saddam": 9818, "missions": 9819, "sagten": 9820, "W\u00fcrde": 9821, "leh@@": 9822, "geraten": 9823, "umsetzen": 9824, "alter@@": 9825, "ergibt": 9826, "flows": 9827, "gy@@": 9828, "handle": 9829, "kun@@": 9830, "sent@@": 9831, "Branche": 9832, "alisierten": 9833, "gallery": 9834, "functionality": 9835, "hierbei": 9836, "pillar": 9837, "tely": 9838, "verwende": 9839, "wonach": 9840, "Beg@@": 9841, "VI@@": 9842, "connect": 9843, "fass@@": 9844, "overview": 9845, "vorschlag": 9846, "Allianz": 9847, "Kol@@": 9848, "\u0442@@": 9849, "bike": 9850, "h\u00f6r@@": 9851, "isk@@": 9852, "nd": 9853, "HO@@": 9854, "Mi\u00df@@": 9855, "Situated": 9856, "bank@@": 9857, "diskrimin@@": 9858, "langsam": 9859, "Personen@@": 9860, "antworten": 9861, "ros": 9862, "worthy": 9863, "ced": 9864, "ost@@": 9865, "tree": 9866, "colours": 9867, "considerably": 9868, "saved": 9869, "toler@@": 9870, "Ebenen": 9871, "Gang": 9872, "iPhone": 9873, "Gl\u00fcck": 9874, "begrenzt": 9875, "ching": 9876, "stern": 9877, "Runde": 9878, "departure": 9879, "kette": 9880, "tain@@": 9881, "worst": 9882, "Ky@@": 9883, "errors": 9884, "lieber": 9885, "therapy": 9886, "cro@@": 9887, "eingegangen": 9888, "gangen": 9889, "parameters": 9890, "stisch": 9891, "Abh\u00e4ngigkeit": 9892, "S\u00e4@@": 9893, "dienst@@": 9894, "excluded": 9895, "kr\u00e4f@@": 9896, "y-01": 9897, "Shar@@": 9898, "Vereinfachung": 9899, "CAP": 9900, "Nic@@": 9901, "covering": 9902, "missing": 9903, "Blan@@": 9904, "ckte": 9905, "dream": 9906, "gr\u00fcnden": 9907, "Agenturen": 9908, "W\u00e4hrungsunion": 9909, "bett": 9910, "fishermen": 9911, "kontrollieren": 9912, "schnell@@": 9913, "Know": 9914, "ando": 9915, "Dritten": 9916, "angepasst": 9917, "dad": 9918, "interessant": 9919, "\u0142@@": 9920, "73": 9921, "Bab@@": 9922, "Gold@@": 9923, "acceptance": 9924, "recognized": 9925, "zugrunde": 9926, "DC": 9927, "acknowledge": 9928, "Offen@@": 9929, "Regional": 9930, "ack": 9931, "films": 9932, "Act": 9933, "Thailand": 9934, "dlicher": 9935, "garten": 9936, "gesetz@@": 9937, "countryside": 9938, "reflects": 9939, "sting": 9940, "Verteilung": 9941, "Vista": 9942, "cancer": 9943, "umzu@@": 9944, "\u00d6ffnung": 9945, "platz@@": 9946, "Text@@": 9947, "aj@@": 9948, "angegeben": 9949, "cle": 9950, "nutz@@": 9951, "priv@@": 9952, "ques": 9953, "Parlamente": 9954, "burger": 9955, "einzigartigen": 9956, "nel": 9957, "reaction": 9958, "unterliegen": 9959, "Donnerstag": 9960, "Drei@@": 9961, "Schwei@@": 9962, "Wechsel@@": 9963, "specialist": 9964, "17.": 9965, "intensi@@": 9966, "speichern": 9967, "Corporate": 9968, "Parlaments@@": 9969, "forth": 9970, "Daf\u00fcr": 9971, "Rich@@": 9972, "besonderer": 9973, "gest\u00e4rkt": 9974, "Georgia": 9975, "accident": 9976, "bedanken": 9977, "Krisen@@": 9978, "Nummer": 9979, "Schwar@@": 9980, "instructions": 9981, "utz@@": 9982, "Resolution": 9983, "methoden": 9984, "vereinbart": 9985, "B\u00f6rse": 9986, "fairly": 9987, "gerei@@": 9988, "ktor": 9989, "shadow": 9990, "verein@@": 9991, "\u00fcl@@": 9992, "Arbeitsplatz": 9993, "B\u00f6@@": 9994, "Geneva": 9995, "hen@@": 9996, "\u00fcb@@": 9997, "Armee": 9998, "grad": 9999, "individu@@": 10000, "listings": 10001, "sup@@": 10002, "Law": 10003, "&apos;m": 10004, "gnis": 10005, "Debatten": 10006, "hn@@": 10007, "vertrag": 10008, "Videos": 10009, "steigt": 10010, "Herz@@": 10011, "SQL": 10012, "Tausende": 10013, "gegenw\u00e4rtige": 10014, "tan": 10015, "Bot@@": 10016, "W\u00e4hlen": 10017, "sensible": 10018, "tenden": 10019, "Bereitschaft": 10020, "generations": 10021, "one@@": 10022, "Spa\u00df": 10023, "sections": 10024, "Personal@@": 10025, "concentrate": 10026, "destroyed": 10027, "NGOs": 10028, "Ham@@": 10029, "Sudan": 10030, "herunterladen": 10031, "wachsenden": 10032, "Prei@@": 10033, "drinks": 10034, "istic": 10035, "raising": 10036, "Roh@@": 10037, "homes": 10038, "z\u00e4h@@": 10039, "Apple": 10040, "Dec@@": 10041, "nine": 10042, "n\u00e4@@": 10043, "politisches": 10044, "setzte": 10045, "\u00fcberaus": 10046, "Ursachen": 10047, "deposit": 10048, "81": 10049, "cop@@": 10050, "visu@@": 10051, "Kanada": 10052, "dam@@": 10053, "dest@@": 10054, "sem@@": 10055, "Ger\u00e4t": 10056, "Stra\u00dfburg": 10057, "cas@@": 10058, "lovely": 10059, "merk@@": 10060, "Spi@@": 10061, "Vater": 10062, "verbindet": 10063, "Sunday": 10064, "bol@@": 10065, "cells": 10066, "sitz": 10067, "thy": 10068, "Verarbeitung": 10069, "externen": 10070, "Leg@@": 10071, "reconstruction": 10072, "tie@@": 10073, "verweisen": 10074, "confirmation": 10075, "Golf@@": 10076, "Sind": 10077, "managing": 10078, "63": 10079, "Kle@@": 10080, "Que@@": 10081, "Saf@@": 10082, "lischen": 10083, "\u017e@@": 10084, "\u043b@@": 10085, "CON@@": 10086, "Through": 10087, "threats": 10088, "\u00d6l": 10089, "R\u00fcckkehr": 10090, "Dom@@": 10091, "Should": 10092, "Zahlungen": 10093, "fan": 10094, "que@@": 10095, "F\u00fchrer": 10096, "bares": 10097, "commen@@": 10098, "ranging": 10099, "Hier@@": 10100, "Sein": 10101, "geschichte": 10102, "lierte": 10103, "freundlich": 10104, "targeted": 10105, "Source": 10106, "clubs": 10107, "A.": 10108, "Schiff@@": 10109, "grenz@@": 10110, "beru@@": 10111, "checks": 10112, "optimale": 10113, "ichte": 10114, "Ide@@": 10115, "Ombudsman": 10116, "Rechnungs@@": 10117, "organic": 10118, "restore": 10119, "Faktor": 10120, "Who": 10121, "ele": 10122, "wundersch\u00f6nen": 10123, "Up": 10124, "Wirtschaftskrise": 10125, "besorgt": 10126, "t\u00fcrkischen": 10127, "Gelder": 10128, "passen": 10129, "profits": 10130, "auffordern": 10131, "intends": 10132, "mein@@": 10133, "verwaltung": 10134, "hervorragenden": 10135, "mag@@": 10136, "Individu@@": 10137, "Standort": 10138, "dead": 10139, "Beseitigung": 10140, "Sachen": 10141, "k\u00f6@@": 10142, "proportion": 10143, "senken": 10144, "showed": 10145, "aside": 10146, "lights": 10147, "74": 10148, "May@@": 10149, "adapted": 10150, "budgets": 10151, "fr\u00fc@@": 10152, "Kil@@": 10153, "tene": 10154, "zur\u00fcckzuf\u00fchren": 10155, "Blue": 10156, "Umweltschutz": 10157, "mon": 10158, "Erhaltung": 10159, "Gay": 10160, "SU@@": 10161, "annt": 10162, "promise": 10163, "Hans": 10164, "Vir@@": 10165, "alls": 10166, "ight": 10167, "tak@@": 10168, "Bour@@": 10169, "ater@@": 10170, "erkannt": 10171, "st\u00e4rkere": 10172, "Cup": 10173, "Sicherheitspolitik": 10174, "Telefon@@": 10175, "freely": 10176, "ink": 10177, "Administration": 10178, "Tourism": 10179, "ium": 10180, "sichergestellt": 10181, "urgently": 10182, "Friendly": 10183, "sufficiently": 10184, "Frieden@@": 10185, "Heizung": 10186, "unentgeltlich": 10187, "Bars": 10188, "Urheber@@": 10189, "sicherung": 10190, "Wh@@": 10191, "f\u00fcgen": 10192, "hing": 10193, "universities": 10194, "Erinnerung": 10195, "Zypern": 10196, "aktiviert": 10197, "sichtbar": 10198, "TE@@": 10199, "angemessenen": 10200, "kleines": 10201, "ania": 10202, "atur": 10203, "aum": 10204, "l\u00e4ndliche": 10205, "wrote": 10206, "blin@@": 10207, "skiing": 10208, "76": 10209, "Dialogs": 10210, "dien": 10211, "Tages": 10212, "dieren": 10213, "spor@@": 10214, "stellungs@@": 10215, "it\u00e4@@": 10216, "verfahrens": 10217, "Lastly": 10218, "dauert": 10219, "fleet": 10220, "Budgets": 10221, "Touristen": 10222, "ausgaben": 10223, "birth": 10224, "spra@@": 10225, "Gehminuten": 10226, "Mutter@@": 10227, "Opposition": 10228, "l\u00f6sungen": 10229, "umfassend": 10230, "K\u00fcsten@@": 10231, "Kranken@@": 10232, "internationally": 10233, "ks@@": 10234, "schwei@@": 10235, "Kontinent": 10236, "driven": 10237, "Suiten": 10238, "etes": 10239, "H\u00f6@@": 10240, "kontaktieren": 10241, "Ken@@": 10242, "transmission": 10243, "wald": 10244, "Todesstrafe": 10245, "Zusammenhalt": 10246, "conventional": 10247, "gefragt": 10248, "Jun@@": 10249, "Log@@": 10250, "football": 10251, "froh": 10252, "pm": 10253, "realer": 10254, "sho@@": 10255, "zweitens": 10256, "Ausfl\u00fcge": 10257, "Mechanismen": 10258, "modu@@": 10259, "verfol@@": 10260, "combine": 10261, "Umweltfragen": 10262, "looked": 10263, "stars": 10264, "Frist": 10265, "Gesch\u00e4ft": 10266, "bus@@": 10267, "\u00fcberwinden": 10268, "Steuerung": 10269, "erfordern": 10270, "pose": 10271, "Kopenhagen": 10272, "Tau@@": 10273, "empfangen": 10274, "Australia": 10275, "anhand": 10276, "arising": 10277, "entspannen": 10278, "Cra@@": 10279, "Labour": 10280, "geeignete": 10281, "Jugend": 10282, "Lizenz": 10283, "Rio": 10284, "angewendet": 10285, "inmitten": 10286, "ma\u00dfen": 10287, "neighbouring": 10288, "prospects": 10289, "verboten": 10290, "ange": 10291, "wear": 10292, "bew\u00e4ltigen": 10293, "sammeln": 10294, "squ@@": 10295, "belong": 10296, "inn@@": 10297, "klein@@": 10298, "Marken@@": 10299, "Rel@@": 10300, "spi@@": 10301, "individuell": 10302, "ingen": 10303, "rare": 10304, "subsequent": 10305, "28@@": 10306, "Freitag": 10307, "Wesentlichen": 10308, "heading": 10309, "krie@@": 10310, "relates": 10311, "Berg": 10312, "sogenannten": 10313, "DR": 10314, "OM@@": 10315, "pure": 10316, "Einwohner": 10317, "konkret": 10318, "presenting": 10319, "upper": 10320, "irischen": 10321, "mmern": 10322, "61": 10323, "ac": 10324, "l\u00e4u@@": 10325, "umfangreiche": 10326, "n\u00fctzlich": 10327, "bly": 10328, "cou@@": 10329, "mos": 10330, "schweren": 10331, "Dokumenten": 10332, "HIV": 10333, "Haup@@": 10334, "Mari@@": 10335, "Marken": 10336, "Place": 10337, "derzeitige": 10338, "hot@@": 10339, "untersucht": 10340, "a.@@": 10341, "conf@@": 10342, "nat\u00fcrliche": 10343, "ollen": 10344, "Boden@@": 10345, "fizierung": 10346, "Beitritts@@": 10347, "chair": 10348, "coherent": 10349, "schalten": 10350, "territorial": 10351, "Pack": 10352, "stitu@@": 10353, "Consequently": 10354, "Email": 10355, "arbeits@@": 10356, "letzter": 10357, "characters": 10358, "enge": 10359, "eres": 10360, "ji@@": 10361, "stattfindet": 10362, "ungsin@@": 10363, "16.": 10364, "Zeitung": 10365, "hohem": 10366, "lenken": 10367, "Instruments": 10368, "mangel@@": 10369, "normalen": 10370, "sah": 10371, "Culture": 10372, "ration@@": 10373, "bemerk@@": 10374, "Basi@@": 10375, "anschlie\u00dfend": 10376, "dry": 10377, "fees": 10378, "Provinz": 10379, "frequency": 10380, "69": 10381, "villages": 10382, "Dienstleistungs@@": 10383, "Niederlanden": 10384, "Town": 10385, "appeared": 10386, "classes": 10387, "deeply": 10388, "ential": 10389, "hochwertige": 10390, "korrekt": 10391, "leichter": 10392, "leu@@": 10393, "Treaties": 10394, "collected": 10395, "sach@@": 10396, "Bis@@": 10397, "Papier": 10398, "radik@@": 10399, "bergen": 10400, "eless": 10401, "AC": 10402, "consequence": 10403, "phi@@": 10404, "Koh\u00e4sionspolitik": 10405, "existiert": 10406, "remained": 10407, "villa": 10408, "highlighted": 10409, "niedri@@": 10410, "struktur": 10411, "typ@@": 10412, "viel@@": 10413, "\u0432@@": 10414, "Consumer": 10415, "Diam@@": 10416, "MP3": 10417, "entgegen": 10418, "hostel": 10419, "Alt@@": 10420, "Br\u00fc@@": 10421, "erkl\u00e4r@@": 10422, "fair@@": 10423, "AK@@": 10424, "supplied": 10425, "GAP": 10426, "erstmals": 10427, "kontrol@@": 10428, "bekommt": 10429, "hingegen": 10430, "ME": 10431, "Mandat": 10432, "OL@@": 10433, "HD": 10434, "director": 10435, "geo@@": 10436, "zeug": 10437, "arischen": 10438, "geplant": 10439, "negativen": 10440, "terror@@": 10441, "unt": 10442, "Sau@@": 10443, "female": 10444, "Obje@@": 10445, "Red@@": 10446, "m\u00e4rkten": 10447, "Regel@@": 10448, "Belgian": 10449, "Hat": 10450, "arrived": 10451, "cleaning": 10452, "belief": 10453, "lunch": 10454, "mas@@": 10455, "Andererseits": 10456, "Stuttgart": 10457, "regulated": 10458, "spro@@": 10459, "considers": 10460, "diplomatic": 10461, "learned": 10462, "Denmark": 10463, "berichten": 10464, "letz@@": 10465, "nbsp": 10466, "phenomenon": 10467, "processed": 10468, "Bestimmung": 10469, "Protocol": 10470, "egal": 10471, "produzieren": 10472, "briefly": 10473, "erhielt": 10474, "leitung": 10475, "Joseph": 10476, "ecological": 10477, "grei@@": 10478, "Quellen": 10479, "contextual": 10480, "tief": 10481, "CS@@": 10482, "Sammlung": 10483, "lived": 10484, "referring": 10485, "Got@@": 10486, "Senkung": 10487, "buch": 10488, "gepr\u00e4gt": 10489, "sian": 10490, "trends": 10491, "verla@@": 10492, "\u00e4nderungen": 10493, "Leitung": 10494, "brachte": 10495, "ride": 10496, "schung": 10497, "contrast-01": 10498, "Andere": 10499, "Fehler@@": 10500, "gestaltung": 10501, "ily": 10502, "normalerweise": 10503, "super": 10504, "Lizenz@@": 10505, "thermal": 10506, "tisches": 10507, "adds": 10508, "anwen@@": 10509, "ausgezeichnet": 10510, "lock": 10511, "wards": 10512, "Constitutional": 10513, "K\u00f6rper@@": 10514, "Mir": 10515, "trac@@": 10516, "unterschiedlich": 10517, "enorme": 10518, "kolle@@": 10519, "vornehmen": 10520, "eingeb@@": 10521, "layer": 10522, "struggle": 10523, "denjenigen": 10524, "honour": 10525, "province": 10526, "tennis": 10527, "tiker": 10528, "Besitz@@": 10529, "assembly": 10530, "promised": 10531, "quotas": 10532, "sichts@@": 10533, "transferred": 10534, "Jahrzehnten": 10535, "Tor": 10536, "betrie@@": 10537, "decline": 10538, "Gro\u00dfteil": 10539, "convergence": 10540, "prison": 10541, "6.": 10542, "Willkommen": 10543, "dargestellt": 10544, "Dingen": 10545, "Nahrungsmittel@@": 10546, "bereiten": 10547, "Ali@@": 10548, "Cast@@": 10549, "Mallorca": 10550, "efficiently": 10551, "gements": 10552, "pal\u00e4stinensischen": 10553, "Generationen": 10554, "computers": 10555, "geographical": 10556, "handels": 10557, "push": 10558, "water@@": 10559, "Presse": 10560, "Versammlung": 10561, "ho": 10562, "reliability": 10563, "LU@@": 10564, "Piazza": 10565, "joining": 10566, "schnellen": 10567, "consulting": 10568, "ease": 10569, "poly@@": 10570, "Full": 10571, "ath": 10572, "funded": 10573, "engaged": 10574, "ep": 10575, "izing": 10576, "originally": 10577, "TA@@": 10578, "cultures": 10579, "festen": 10580, "dan": 10581, "Christ@@": 10582, "ROM": 10583, "mistake": 10584, "bran@@": 10585, "edited": 10586, "europ\u00e4isches": 10587, "keinem": 10588, "B\u00fcro": 10589, "Tonnen": 10590, "weis@@": 10591, "Chr@@": 10592, "guided": 10593, "iler": 10594, "insist": 10595, "pay@@": 10596, "st\u00f6r@@": 10597, "clarify": 10598, "delicious": 10599, "han": 10600, "sex": 10601, "sing@@": 10602, "Licht@@": 10603, "analyse": 10604, "lec@@": 10605, "nummer": 10606, "tea": 10607, "1st": 10608, "alists": 10609, "sit": 10610, "integrierten": 10611, "isiert": 10612, "UC@@": 10613, "gnissen": 10614, "Pet@@": 10615, "andt": 10616, "beenden": 10617, "essentially": 10618, "rat@@": 10619, "Eu@@": 10620, "bat@@": 10621, "zwingen": 10622, "engage": 10623, "equivalent": 10624, "roman@@": 10625, "UNESCO": 10626, "schten": 10627, "temp@@": 10628, "87": 10629, "Top@@": 10630, "effektive": 10631, "tert": 10632, "Mah@@": 10633, "phy@@": 10634, "Mechanismus": 10635, "negotiation": 10636, "occurred": 10637, "entscheidenden": 10638, "trips": 10639, "Gesundheit@@": 10640, "Wandel": 10641, "bende": 10642, "prisoners": 10643, "untersuchen": 10644, "Potenzial": 10645, "affects": 10646, "hn": 10647, "Geschmack": 10648, "Verwirklichung": 10649, "of@@": 10650, "Au\u00dfen-": 10651, "Finde": 10652, "Verlauf": 10653, "secondly": 10654, "PS@@": 10655, "Vertretern": 10656, "gor@@": 10657, "tter": 10658, "Hindernisse": 10659, "Ratschlag": 10660, "Staats-": 10661, "candidates": 10662, "onn@@": 10663, "bereitet": 10664, "brei@@": 10665, "gelegenen": 10666, "krise": 10667, "Augenblick": 10668, "ades": 10669, "Herz": 10670, "humanit\u00e4ren": 10671, "imperative": 10672, "Energieeffizienz": 10673, "K\u00f6nig@@": 10674, "diesbez\u00fcglich": 10675, "lor@@": 10676, "Gast": 10677, "wellness": 10678, "finanzieren": 10679, "oni@@": 10680, "zukommen": 10681, "Amerikaner": 10682, "St\u00e4rke": 10683, "forschung": 10684, "f\u00e4hige": 10685, "sounds": 10686, "appearance": 10687, "basi@@": 10688, "enjoyed": 10689, "legten": 10690, "ox@@": 10691, "Fundamental": 10692, "Passwort": 10693, "favourable": 10694, "fundament@@": 10695, "bahn@@": 10696, "uniform": 10697, "Gemeinschaften": 10698, "Wirtschaftspolitik": 10699, "maten": 10700, "warning": 10701, "Cooperation": 10702, "SW@@": 10703, "anywhere": 10704, "aufgebaut": 10705, "Alexander": 10706, "Zy@@": 10707, "ano@@": 10708, "gew\u00fcnschten": 10709, "tations": 10710, "terie": 10711, "Koordin@@": 10712, "Verbraucherschutz": 10713, "shift": 10714, "Education": 10715, "Gir@@": 10716, "aden": 10717, "illegale": 10718, "rechtzeitig": 10719, "Quelle": 10720, "Tex@@": 10721, "executive": 10722, "highlights": 10723, "gesetzlichen": 10724, "Ot@@": 10725, "bestellen": 10726, "anzen": 10727, "rats": 10728, "rieren": 10729, "rolle": 10730, "ld": 10731, "ret@@": 10732, "graph@@": 10733, "soeben": 10734, "verw@@": 10735, "operates": 10736, "proble@@": 10737, "\u00fcberlassen": 10738, "Hot@@": 10739, "Indian": 10740, "edi@@": 10741, "environmentally": 10742, "heads": 10743, "Maschine": 10744, "Ten@@": 10745, "iled": 10746, "Helsinki": 10747, "Refer@@": 10748, "Regulierung": 10749, "Urteil": 10750, "gia": 10751, "pretty": 10752, "satisfy": 10753, "seeks": 10754, "accidents": 10755, "execution": 10756, "festzustellen": 10757, "griechischen": 10758, "kultur@@": 10759, "olo": 10760, "unforgettable": 10761, "Schweizer": 10762, "elled": 10763, "hierf\u00fcr": 10764, "langfristigen": 10765, "manufacture": 10766, "Vermittlungs@@": 10767, "ario": 10768, "meaningfully": 10769, "OK": 10770, "VER@@": 10771, "adding": 10772, "individually": 10773, "kontrolliert": 10774, "Gemeinde": 10775, "ktiv": 10776, "rap@@": 10777, "Family": 10778, "Geschwindigkeit": 10779, "gef\u00e4hrdet": 10780, "ida": 10781, "igten": 10782, "klin@@": 10783, "r\u00e4umen": 10784, "usage": 10785, "BI@@": 10786, "Luxemburg": 10787, "chairman": 10788, "fl\u00e4chen": 10789, "integrate": 10790, "passing": 10791, "Computer@@": 10792, "gleicherma\u00dfen": 10793, "museums": 10794, "Kompetenz": 10795, "k\u00f6nnt": 10796, "natur@@": 10797, "sorge": 10798, "Beachtung": 10799, "Investoren": 10800, "Kapital": 10801, "achievement": 10802, "freundlichen": 10803, "7.": 10804, "Internationale": 10805, "gerin@@": 10806, "inten@@": 10807, "succeeded": 10808, "wendet": 10809, "Projekts": 10810, "doku@@": 10811, "grund@@": 10812, "rad": 10813, "wirkliche": 10814, "Pie@@": 10815, "Sound": 10816, "Venice": 10817, "anniversary": 10818, "erweitern": 10819, "incorporated": 10820, "lieb@@": 10821, "tr\u00e4ge": 10822, "willingness": 10823, "Ly@@": 10824, "alcohol": 10825, "stieg": 10826, "Kampagne": 10827, "alising": 10828, "enthalt": 10829, "sto\u00dfen": 10830, "Strom@@": 10831, "din": 10832, "ening": 10833, "Kandidaten": 10834, "Tab@@": 10835, "exact": 10836, "euros": 10837, "\u00e4u\u00dfer@@": 10838, "Emissions@@": 10839, "K\u00e4@@": 10840, "Registrierung": 10841, "Reservierung": 10842, "eingestellt": 10843, "Nachhaltigkeit": 10844, "aviation": 10845, "duc@@": 10846, "Aut@@": 10847, "grown": 10848, "part@@": 10849, "reserved": 10850, "Dol@@": 10851, "anzunehmen": 10852, "pick": 10853, "symbol": 10854, "\u00dcbrigen": 10855, "ature": 10856, "fanden": 10857, "igsten": 10858, "lier": 10859, "rechtlich": 10860, "revenue": 10861, "switch": 10862, "vert@@": 10863, "Schon": 10864, "enswert": 10865, "qualitativ": 10866, "panel": 10867, "AD": 10868, "encouraged": 10869, "kontextuellen": 10870, "900": 10871, "ama@@": 10872, "angewandt": 10873, "bla@@": 10874, "m\u00fcsste": 10875, "suit": 10876, "Kern": 10877, "PE": 10878, "\u00f6s@@": 10879, "Fir@@": 10880, "Mark": 10881, "atten": 10882, "wireless": 10883, "Arbeitnehmern": 10884, "Genie\u00dfen": 10885, "HU": 10886, "Trek": 10887, "dul@@": 10888, "entering": 10889, "m\u00fcssten": 10890, "tro": 10891, "videos": 10892, "Modernisierung": 10893, "Parkplatz": 10894, "Sozi@@": 10895, "sensi@@": 10896, "befasst": 10897, "hielt": 10898, "s.": 10899, "snow": 10900, "Dro@@": 10901, "Errichtung": 10902, "Fernsehen": 10903, "Reisen": 10904, "infolge": 10905, "k\u00fcn@@": 10906, "m\u00e4\u00dfige": 10907, "printed": 10908, "purely": 10909, "widespread": 10910, "Listings": 10911, "entdeckst": 10912, "geregelt": 10913, "hart": 10914, "voraus": 10915, "wesentlicher": 10916, "Ausarbeitung": 10917, "m\u00f6gen": 10918, "unfair": 10919, "zeugen": 10920, "Bud@@": 10921, "ace": 10922, "regionen": 10923, "Hostel": 10924, "Road": 10925, "nehme": 10926, "Polizei@@": 10927, "10.": 10928, "OLAF": 10929, "R\u00f6@@": 10930, "gehandelt": 10931, "icht": 10932, "portfolio": 10933, "Tabak@@": 10934, "aci@@": 10935, "geh\u00f6rigen": 10936, "grammatically": 10937, "contextually": 10938, "schwierige": 10939, "\u00c4gypten": 10940, "Gau@@": 10941, "Parameter": 10942, "Quar@@": 10943, "attached": 10944, "aturen": 10945, "bezahlt": 10946, "compact": 10947, "compulsory": 10948, "fru@@": 10949, "passt": 10950, "references": 10951, "troops": 10952, "erg\u00e4nzt": 10953, "harmful": 10954, "hinzufugen": 10955, "Ag@@": 10956, "amended": 10957, "Ari@@": 10958, "Erst": 10959, "KDE": 10960, "alities": 10961, "nungen": 10962, "radical": 10963, "grammatisch": 10964, "stake": 10965, "Oli@@": 10966, "alit\u00e4ten": 10967, "binden": 10968, "g\u00fcnstige": 10969, "kontextuell": 10970, "Meeting": 10971, "causing": 10972, "damages": 10973, "offizielle": 10974, "Earth": 10975, "Free@@": 10976, "Ergebnissen": 10977, "Minister@@": 10978, "Py@@": 10979, "Stiftung": 10980, "ais": 10981, "tun@@": 10982, "Kn@@": 10983, "Pati@@": 10984, "Wat@@": 10985, "Schlusselphrase": 10986, "Schlusselwort": 10987, "factory": 10988, "preserve": 10989, "sau@@": 10990, "ati": 10991, "aufgezahlt": 10992, "po": 10993, "travelling": 10994, "Mexiko": 10995, "Schreiben": 10996, "Versorgung": 10997, "cont@@": 10998, "Director": 10999, "Geheim@@": 11000, "Industry": 11001, "Plenar@@": 11002, "Stan@@": 11003, "Schla@@": 11004, "Vin@@": 11005, "associations": 11006, "festlegen": 11007, "relative": 11008, "83": 11009, "explanation": 11010, "pour": 11011, "regelung": 11012, "selten": 11013, "tain": 11014, "Sektors": 11015, "begleitet": 11016, "Hohe": 11017, "kro@@": 11018, "logic": 11019, "ori": 11020, "st\u00fcck": 11021, "zin@@": 11022, "Sec@@": 11023, "genaue": 11024, "IMF": 11025, "annten": 11026, "cell": 11027, "collect": 11028, "fans": 11029, "implications": 11030, "normally": 11031, "Beide": 11032, "Blair": 11033, "para@@": 11034, "Bearbeitung": 11035, "Reserve": 11036, "dark": 11037, "Glauben": 11038, "Kategorien": 11039, "desk": 11040, "eat": 11041, "pressing": 11042, "40@@": 11043, "Abendessen": 11044, "Warcraft": 11045, "Wur@@": 11046, "bearing": 11047, "pack@@": 11048, "Gor@@": 11049, "\u0160@@": 11050, "Jugendlichen": 11051, "bedeutenden": 11052, "12.": 11053, "Cab@@": 11054, "LT": 11055, "everywhere": 11056, "ktion@@": 11057, "Rin@@": 11058, "Saturday": 11059, "Sol": 11060, "Ticket": 11061, "gesp@@": 11062, "governing": 11063, "zentral": 11064, "geber": 11065, "Bed\u00fcrfnissen": 11066, "gef\u00e4hr@@": 11067, "reporting": 11068, "iro": 11069, "verletzt": 11070, "Kreditkarte": 11071, "Pr\u00e4senz": 11072, "Wirksamkeit": 11073, "atic": 11074, "floors": 11075, "gehei@@": 11076, "percentage": 11077, "strictly": 11078, "utmost": 11079, "ened": 11080, "enforcement": 11081, "resulted": 11082, "scientists": 11083, "servers": 11084, "wage": 11085, "Danish": 11086, "Darstellung": 11087, "Federation": 11088, "Orte": 11089, "airports": 11090, "\u00f6h@@": 11091, "argu@@": 11092, "13.": 11093, "Europa@@": 11094, "Storage": 11095, "Ven@@": 11096, "boost": 11097, "formats": 11098, "teen": 11099, "vorbei": 11100, "Science": 11101, "empfohlen": 11102, "gelesen": 11103, "poorest": 11104, "promises": 11105, "tionally": 11106, "Drittel": 11107, "Stamm@@": 11108, "vorgelegten": 11109, "Explorer": 11110, "Muslim": 11111, "Premierminister": 11112, "eds": 11113, "produces": 11114, "Dritte": 11115, "crises": 11116, "derten": 11117, "sig@@": 11118, "Investitions@@": 11119, "handel@@": 11120, "praktischen": 11121, "say-01": 11122, "teils": 11123, "virtually": 11124, "Apar@@": 11125, "Siemens": 11126, "Wald@@": 11127, "ere@@": 11128, "erkl\u00e4rte": 11129, "gew\u00e4hlten": 11130, "Fisheries": 11131, "Haben": 11132, "agents": 11133, "spite": 11134, "12.00": 11135, "stuff": 11136, "anzeigen": 11137, "hopes": 11138, "Frauen@@": 11139, "Get@@": 11140, "histor@@": 11141, "Dass": 11142, "Islands": 11143, "dispute": 11144, "ierter": 11145, "toward": 11146, "ato@@": 11147, "Auftrags@@": 11148, "Eng@@": 11149, "Firefox": 11150, "auff@@": 11151, "deln": 11152, "flug@@": 11153, "interpre@@": 11154, "ratification": 11155, "della": 11156, "entdeckt": 11157, "Bibliothek": 11158, "hospitality": 11159, "klu@@": 11160, "xen": 11161, "Journalisten": 11162, "Wen@@": 11163, "cell@@": 11164, "spann@@": 11165, "Opera": 11166, "Somit": 11167, "XML": 11168, "convention": 11169, "inner@@": 11170, "lichsten": 11171, "unity": 11172, "\u00e4lteren": 11173, "LAN": 11174, "digitalen": 11175, "rischen": 11176, "schriften": 11177, "sizes": 11178, "8.": 11179, "bewahren": 11180, "designs": 11181, "Geschle@@": 11182, "Jerusalem": 11183, "Montag": 11184, "Verein@@": 11185, "extending": 11186, "tries": 11187, "Residence": 11188, "Betriebe": 11189, "Wiederaufbau": 11190, "absol@@": 11191, "multilateral": 11192, "1980": 11193, "komplette": 11194, "tab@@": 11195, "Ange@@": 11196, "Bug@@": 11197, "Hardware": 11198, "advis@@": 11199, "bewerten": 11200, "griffe": 11201, "84": 11202, "Christmas": 11203, "Finnland": 11204, "Menschenrecht@@": 11205, "sichti@@": 11206, "fanta@@": 11207, "Ankunft": 11208, "gradually": 11209, "pap@@": 11210, "sights": 11211, "Pul@@": 11212, "catch": 11213, "liable": 11214, "operated": 11215, "Employment": 11216, "Symbol": 11217, "meets": 11218, "z\u00fc@@": 11219, "Patent@@": 11220, "Anbetracht": 11221, "GM@@": 11222, "Serbien": 11223, "Spitzen@@": 11224, "melden": 11225, "restored": 11226, "romantic": 11227, "Anwender": 11228, "Common": 11229, "jedenfalls": 11230, "schemes": 11231, "H\u00f6chst@@": 11232, "Vorsitzenden": 11233, "eingebracht": 11234, "ma\u00df@@": 11235, "pot": 11236, "scho@@": 11237, ".net": 11238, "ansprechen": 11239, "marine": 11240, "r\u00e4gen": 11241, "spiele": 11242, "\u00dcberblick": 11243, "amenities": 11244, "steigern": 11245, "viertel": 11246, "Ges@@": 11247, "CC": 11248, "Trau@@": 11249, "au\u00dfen": 11250, "ogra@@": 11251, "spit@@": 11252, "st\u00e4tigkeit": 11253, "\u00edn": 11254, "Basel": 11255, "Jan@@": 11256, "Kriegs@@": 11257, "endet": 11258, "iell": 11259, "legitimacy": 11260, "recognize": 11261, "mation": 11262, "versammlung": 11263, "z\u00fcge": 11264, "\u00e4h@@": 11265, "ech@@": 11266, "eing": 11267, "f\u00f6rder@@": 11268, "slo@@": 11269, "Casa": 11270, "Demokraten": 11271, "Sou@@": 11272, "Klin@@": 11273, "Souver\u00e4nit\u00e4t": 11274, "Suites": 11275, "Among": 11276, "Parkpl\u00e4tze": 11277, "whereby": 11278, "airlines": 11279, "innov@@": 11280, "operator": 11281, "stet": 11282, "Os@@": 11283, "chern": 11284, "konstru@@": 11285, "k\u00fcmmern": 11286, "stur@@": 11287, "Argumente": 11288, "CP": 11289, "medicine": 11290, "Civil": 11291, "Spezial@@": 11292, "Zahlung": 11293, "erzeugen": 11294, "krimin@@": 11295, "treatments": 11296, "makers": 11297, "wertung": 11298, "Az@@": 11299, "aus\u00fcben": 11300, "lem": 11301, "parlamentarischen": 11302, "plastic": 11303, "sor": 11304, "tte": 11305, "Dach@@": 11306, "Schaden@@": 11307, "beh\u00e4lt": 11308, "einheit@@": 11309, "hill": 11310, "kil@@": 11311, "lierung": 11312, "ologisch": 11313, "sand": 11314, "Hinweise": 11315, "Hit@@": 11316, "Kap@@": 11317, "Volkspartei": 11318, "ame": 11319, "bahnen": 11320, "musical": 11321, "wahr": 11322, "Bin@@": 11323, "eur@@": 11324, "incentives": 11325, "modi@@": 11326, "nic@@": 11327, "\u0434@@": 11328, "Akteure": 11329, "Datei@@": 11330, "Innovationen": 11331, "Mr.": 11332, "besu@@": 11333, "stream": 11334, "violation": 11335, "Wochenende": 11336, "beinhalten": 11337, "gekennzeichnet": 11338, "optimi@@": 11339, "zy": 11340, "Kno@@": 11341, "wis@@": 11342, "Rol@@": 11343, "gro\u00df@@": 11344, "welcoming": 11345, "Fr@@": 11346, "Mutter": 11347, "med@@": 11348, "shot": 11349, "Bul@@": 11350, "Sierra": 11351, "choices": 11352, "participating": 11353, "zerst\u00f6rt": 11354, "\u00e4umen": 11355, "Symp@@": 11356, "stren@@": 11357, "zieh@@": 11358, "Konvent": 11359, "Nizza": 11360, "edition": 11361, "\u00dcbertragung": 11362, "Ausweitung": 11363, "Chile": 11364, "IWF": 11365, "federal": 11366, "ungsa@@": 11367, "GPS": 11368, "Minute": 11369, "Nation@@": 11370, "Tech": 11371, "expense": 11372, "ris": 11373, "CDs": 11374, "alog": 11375, "m\u00e4\u00dfigen": 11376, "ordered": 11377, "satisfactory": 11378, "verstehe": 11379, "Milch@@": 11380, "ctor": 11381, "medicines": 11382, "GE": 11383, "eventuell": 11384, "Spielen": 11385, "arbeitete": 11386, "dam": 11387, "oten@@": 11388, "reputation": 11389, "Intergovernmental": 11390, "addressing": 11391, "f\u00e4hrt": 11392, "Gr\u00fcn@@": 11393, "denkt": 11394, "doub@@": 11395, "graphics": 11396, "5,@@": 11397, "Sch\u00f6nheit": 11398, "halb": 11399, "Tel": 11400, "urgency": 11401, "Proze\u00df": 11402, "Widerstand": 11403, "Zo@@": 11404, "codecision": 11405, "fern@@": 11406, "labor": 11407, "movie": 11408, "turns": 11409, "\u00e1n@@": 11410, "Mittelmeer@@": 11411, "Schlaf@@": 11412, "afrikanischen": 11413, "alongside": 11414, "evident": 11415, "surprised": 11416, "victory": 11417, "Freund": 11418, "Komm@@": 11419, "Using": 11420, "Valley": 11421, "conciliation": 11422, "constitutes": 11423, "eingeleitet": 11424, "mien": 11425, "neighbours": 11426, "varied": 11427, "Arch@@": 11428, "Bran@@": 11429, "GA": 11430, "alem": 11431, "aufzubauen": 11432, "gie@@": 11433, "rip@@": 11434, "vorzunehmen": 11435, "sty@@": 11436, "ALE": 11437, "chapter": 11438, "hung": 11439, "mittlerweile": 11440, "signing": 11441, "yo@@": 11442, "Bedien@@": 11443, "EP@@": 11444, "Next": 11445, "beeinflussen": 11446, "gste": 11447, "hierzu": 11448, "songs": 11449, "twice": 11450, "armen": 11451, "narrow": 11452, "K\u00f6nig": 11453, "Max": 11454, "acquired": 11455, "beseitigen": 11456, "komfortable": 11457, "Prozess@@": 11458, "Werten": 11459, "observed": 11460, "surprise": 11461, "honest": 11462, "sichtlich": 11463, "14.": 11464, "Cuba": 11465, "g\u00fcltig": 11466, "stens": 11467, "Would": 11468, "isieren": 11469, "mere": 11470, "zustellen": 11471, "Cir@@": 11472, "Eingang": 11473, "cker@@": 11474, "debating": 11475, "h\u00e4l@@": 11476, "nei@@": 11477, "soil": 11478, "Betten": 11479, "stammen": 11480, "\u00e1n": 11481, "Glob@@": 11482, "anwenden": 11483, "miss": 11484, "vorliegen": 11485, "kund@@": 11486, "Events": 11487, "Pas@@": 11488, "Ratifizierung": 11489, "Schulden": 11490, "eliminate": 11491, "native": 11492, "ova": 11493, "specialists": 11494, "Wall@@": 11495, "hl": 11496, "sitzen": 11497, "Golden": 11498, "Nikon": 11499, "Zug": 11500, "offenbar": 11501, "ston": 11502, "\u00a4": 11503, "Herbst": 11504, "Jugend@@": 11505, "Prof@@": 11506, "Will@@": 11507, "genuinely": 11508, "mechan@@": 11509, "Line": 11510, "Schiff": 11511, "begins": 11512, "Pack@@": 11513, "eigener": 11514, "fr\u00fchen": 11515, "panoramic": 11516, "Entspannung": 11517, "Module": 11518, "retain": 11519, "Aff@@": 11520, "BA": 11521, "Konferenz@@": 11522, "SY@@": 11523, "Tests": 11524, "elling": 11525, "gemeinsames": 11526, "kilometres": 11527, "Renten@@": 11528, "gam@@": 11529, "letters": 11530, "mine": 11531, "oth": 11532, "\u043a@@": 11533, "stammt": 11534, "xes": 11535, "Herr@@": 11536, "mouse": 11537, "producer": 11538, "tracks": 11539, "engines": 11540, "strukturen": 11541, "79": 11542, "Motor": 11543, "Nero": 11544, "kehren": 11545, "Alp@@": 11546, "Dri@@": 11547, "Tei@@": 11548, "moreover": 11549, "play@@": 11550, "Ma\u00df@@": 11551, "author@@": 11552, "klassischen": 11553, "lationen": 11554, "oun@@": 11555, "tiver": 11556, "Performance": 11557, "will@@": 11558, "Detail": 11559, "Entschlossenheit": 11560, "Patten": 11561, "anzubieten": 11562, "begr\u00fcn@@": 11563, "mot@@": 11564, "30.": 11565, "4,@@": 11566, "DS": 11567, "Solana": 11568, "Str@@": 11569, "ambi@@": 11570, "anen": 11571, "fa": 11572, "gewer@@": 11573, "kul@@": 11574, "picturesque": 11575, "saal": 11576, "sz@@": 11577, "Black@@": 11578, "K\u00fc@@": 11579, "W\u00e4hler": 11580, "olle": 11581, "tigkeiten": 11582, "AM": 11583, "Nigeria": 11584, "ami": 11585, "rische": 11586, "ruhig": 11587, "Fast": 11588, "vergleich@@": 11589, "Vie@@": 11590, "ci\u00f3n": 11591, "mali@@": 11592, "schluss": 11593, "selben": 11594, "Internal": 11595, "frag@@": 11596, "mbar@@": 11597, "\u00e4nden": 11598, "Erreichung": 11599, "estimated": 11600, "landwirtschaftlichen": 11601, "repeated": 11602, "Bed": 11603, "Zimmer@@": 11604, "bian": 11605, "capabilities": 11606, "gericht@@": 11607, "oftmals": 11608, "organise": 11609, "Unions@@": 11610, "leiter": 11611, "schwere": 11612, "verwal@@": 11613, "Service@@": 11614, "ener@@": 11615, "ope": 11616, "statten": 11617, "9.": 11618, "Vorstellungen": 11619, "financed": 11620, "solar": 11621, "teaching": 11622, "underground": 11623, "T\u00fcr": 11624, "folge": 11625, "schule": 11626, "Stock": 11627, "gerechte": 11628, "g\u00fc@@": 11629, "gestal@@": 11630, "perfekte": 11631, "ple": 11632, "\u00fcberwachen": 11633, "Kong": 11634, "deserves": 11635, "Presse@@": 11636, "Todes@@": 11637, "aufbauen": 11638, "combines": 11639, "dans": 11640, "inger": 11641, "sitz@@": 11642, "throw": 11643, "ust": 11644, "Autos": 11645, "Hong": 11646, "erg\u00e4nzen": 11647, "n\u00e4chster": 11648, "geb\u00fchr@@": 11649, "l\u00e4ngst": 11650, "tags": 11651, "Lok@@": 11652, "aktiv@@": 11653, "arium": 11654, "timetable": 11655, "Verwal@@": 11656, "inadequate": 11657, "prop@@": 11658, "sterben": 11659, "stie@@": 11660, "Sobald": 11661, "alu@@": 11662, "permit": 11663, "tom@@": 11664, "Ashton": 11665, "hinaus@@": 11666, "aker": 11667, "nahme@@": 11668, "seats": 11669, "Fu\u00df@@": 11670, "Galileo": 11671, "zahlung": 11672, "Aufzug": 11673, "cla@@": 11674, "justi@@": 11675, "sp\u00e4t": 11676, "Stand@@": 11677, "Z\u00fcrich": 11678, "atte": 11679, "ski@@": 11680, "Customer": 11681, "gabe@@": 11682, "spl@@": 11683, "zeichnungen": 11684, "Pun@@": 11685, "angehen": 11686, "dauer": 11687, "erteilt": 11688, "hiking": 11689, "ops": 11690, "Nor": 11691, "Scho@@": 11692, "Teams": 11693, "CN@@": 11694, "Castle": 11695, "ansehen": 11696, "weltweite": 11697, "Aussage": 11698, "Hour": 11699, "ausgew\u00e4hlt": 11700, "reagiert": 11701, "selber": 11702, "teachers": 11703, "condemn": 11704, "gestatten": 11705, "Dritt@@": 11706, "SD": 11707, "Subject": 11708, "bonus": 11709, "feh@@": 11710, "wort": 11711, "19th": 11712, "branche": 11713, "frem@@": 11714, "records": 11715, "Vereinigte": 11716, "atives": 11717, "b\u00fcrokra@@": 11718, "guaranteeing": 11719, "stel@@": 11720, "Andre@@": 11721, "Ausbau": 11722, "Based": 11723, "Datum": 11724, "Instal@@": 11725, "Key@@": 11726, "SC": 11727, "W\u00e4hrungs@@": 11728, "blocks": 11729, "hum@@": 11730, "olive": 11731, "Cit@@": 11732, "Fru@@": 11733, "Grundlagen": 11734, "openness": 11735, "relationships": 11736, "Weil": 11737, "f\u00e4llig": 11738, "grenz\u00fcberschreitenden": 11739, "rechnen": 11740, "vorgestellt": 11741, "Authority": 11742, "Dies@@": 11743, "apo@@": 11744, "max": 11745, "bewu\u00dft": 11746, "momentan": 11747, "sophisticated": 11748, "Haushalts": 11749, "OECD": 11750, "gef\u00fchrte": 11751, "index": 11752, "wartet": 11753, "Ehe@@": 11754, "Garantien": 11755, "song": 11756, "verurteilen": 11757, "bia": 11758, "considerations": 11759, "Weiterentwicklung": 11760, "gesellschaftlichen": 11761, "mischer": 11762, "\u043c@@": 11763, "mili@@": 11764, "Aspekten": 11765, "foot@@": 11766, "repair": 11767, "wild": 11768, "\u00dcbergang": 11769, "Elektro@@": 11770, "Invest@@": 11771, "Opti@@": 11772, "intelligent": 11773, "row": 11774, "umgehen": 11775, "\u00f6kologischen": 11776, "Erzeu@@": 11777, "Michel": 11778, "Fried@@": 11779, "Verbrauchern": 11780, "approaches": 11781, "italienische": 11782, "ms@@": 11783, "Flugh\u00e4fen": 11784, "campaigns": 11785, "gon": 11786, "ont": 11787, "sum@@": 11788, "visual": 11789, "Fehl@@": 11790, "ard@@": 11791, "conferences": 11792, "tnissen": 11793, "350": 11794, "Vorrang": 11795, "developers": 11796, "dru@@": 11797, "speeches": 11798, "Vertrag@@": 11799, "mouth": 11800, "strasse": 11801, "Entwickler": 11802, "Tal": 11803, "g\u00e4n@@": 11804, "Porto": 11805, "commit": 11806, "inspired": 11807, "m\u00e4n@@": 11808, "ther": 11809, "verringert": 11810, "Abstimmungs@@": 11811, "Further": 11812, "Ret@@": 11813, "Terms": 11814, "dere": 11815, "foundations": 11816, "custom": 11817, "faces": 11818, "keineswegs": 11819, "l\u00e4dt": 11820, "attend": 11821, "digit@@": 11822, "Tieren": 11823, "antes": 11824, "lock@@": 11825, "dateien": 11826, "repeatedly": 11827, "External": 11828, "FI": 11829, "Haut": 11830, "linken": 11831, "prize": 11832, "Jedoch": 11833, "cle@@": 11834, "genes": 11835, "Brun@@": 11836, "Human@@": 11837, "Museen": 11838, "Regional@@": 11839, "Slovakia": 11840, "VIP": 11841, "Berliner": 11842, "amending": 11843, "herrlichen": 11844, "intentions": 11845, "Konvention": 11846, "t\u00e4tigen": 11847, "Nichtraucherzimmer": 11848, "Zwar": 11849, "foremost": 11850, "sische": 11851, "Gottes": 11852, "Planeten": 11853, "acht@@": 11854, "serving": 11855, "\u00e4rer": 11856, "Ferienwohnung": 11857, "SK": 11858, "satzes": 11859, "Zuge": 11860, "ini@@": 11861, "occupation": 11862, "T\u00fcr@@": 11863, "cent@@": 11864, "dation": 11865, "fly": 11866, "iges": 11867, "lobby": 11868, "sli@@": 11869, "stal": 11870, "Portal": 11871, "SCH@@": 11872, "Truppen": 11873, "ador": 11874, "Bay@@": 11875, "Sachver@@": 11876, "Schulz": 11877, "Strecke": 11878, "manual": 11879, "thr@@": 11880, "D\u00e4nemark": 11881, "fewer": 11882, "freund@@": 11883, "Sohn": 11884, "Vertrau@@": 11885, "actors": 11886, "ordin@@": 11887, "sozial@@": 11888, "stores": 11889, "Benutzung": 11890, "Lern@@": 11891, "Verzeichnis": 11892, "hinweg": 11893, "tism": 11894, "ungssysteme": 11895, "accounting": 11896, "k\u00fch@@": 11897, "College": 11898, "Durchsetzung": 11899, "EIB": 11900, "enjoys": 11901, "mpen": 11902, "neun": 11903, "completion": 11904, "economically": 11905, "moder@@": 11906, "proze@@": 11907, "synchron@@": 11908, "thorough": 11909, "unnecessary": 11910, "geblieben": 11911, "Inte@@": 11912, "RSS": 11913, "Religion": 11914,
[...]
